#ifdef __has_attribute
#define HAVE_ATTRIBUTE(temp) __has_attribute(temp)
#else
#define HAVE_ATTRIBUTE(temp) 0
#endif
#ifdef __has_attribute
#define HAVE_ATTRIBUTE(humidity) __has_attribute(humidity)
#else
#define HAVE_ATTRIBUTE(humidity) 0
#endif
#if HAVE_ATTRIBUTE(aligned) || (defined(__GNUC__) && !defined(__clang__))
#define DATA_ALIGN_ATTRIBUTE __attribute__((aligned(4)))
#else
#define DATA_ALIGN_ATTRIBUTE
#endif

const unsigned char comfort_model_summer[] DATA_ALIGN_ATTRIBUTE = {
  0x1c, 0x00, 0x00, 0x00, 0x54, 0x46, 0x4c, 0x33, 0x14, 0x00, 0x20, 0x00,
  0x04, 0x00, 0x08, 0x00, 0x0c, 0x00, 0x10, 0x00, 0x14, 0x00, 0x00, 0x00,
  0x18, 0x00, 0x1c, 0x00, 0x14, 0x00, 0x00, 0x00, 0x03, 0x00, 0x00, 0x00,
  0x4c, 0x00, 0x00, 0x00, 0x40, 0x00, 0x00, 0x00, 0x2c, 0x01, 0x00, 0x00,
  0x0c, 0x00, 0x00, 0x00, 0xd4, 0x00, 0x00, 0x00, 0x44, 0x00, 0x00, 0x00,
  0x0a, 0x00, 0x00, 0x00, 0x04, 0x17, 0x00, 0x00, 0x00, 0x17, 0x00, 0x00,
  0xb0, 0x14, 0x00, 0x00, 0x3c, 0x14, 0x00, 0x00, 0xa0, 0x13, 0x00, 0x00,
  0xb0, 0x03, 0x00, 0x00, 0xec, 0x16, 0x00, 0x00, 0xe8, 0x16, 0x00, 0x00,
  0xe4, 0x16, 0x00, 0x00, 0xd8, 0x00, 0x00, 0x00, 0x01, 0x00, 0x00, 0x00,
  0x10, 0x01, 0x00, 0x00, 0x02, 0x00, 0x00, 0x00, 0x10, 0x03, 0x00, 0x00,
  0xac, 0x01, 0x00, 0x00, 0x01, 0x00, 0x00, 0x00, 0x10, 0x00, 0x00, 0x00,
  0x0c, 0x00, 0x14, 0x00, 0x10, 0x00, 0x0c, 0x00, 0x08, 0x00, 0x04, 0x00,
  0x0c, 0x00, 0x00, 0x00, 0x10, 0x00, 0x00, 0x00, 0x18, 0x00, 0x00, 0x00,
  0x28, 0x00, 0x00, 0x00, 0x2c, 0x00, 0x00, 0x00, 0x05, 0x00, 0x00, 0x00,
  0x73, 0x65, 0x72, 0x76, 0x65, 0x00, 0x00, 0x00, 0x0f, 0x00, 0x00, 0x00,
  0x73, 0x65, 0x72, 0x76, 0x69, 0x6e, 0x67, 0x5f, 0x64, 0x65, 0x66, 0x61,
  0x75, 0x6c, 0x74, 0x00, 0x01, 0x00, 0x00, 0x00, 0x14, 0x00, 0x00, 0x00,
  0x01, 0x00, 0x00, 0x00, 0x24, 0x00, 0x00, 0x00, 0x08, 0x00, 0x0c, 0x00,
  0x08, 0x00, 0x04, 0x00, 0x08, 0x00, 0x00, 0x00, 0x07, 0x00, 0x00, 0x00,
  0x04, 0x00, 0x00, 0x00, 0x07, 0x00, 0x00, 0x00, 0x64, 0x65, 0x6e, 0x73,
  0x65, 0x5f, 0x31, 0x00, 0x02, 0xec, 0xff, 0xff, 0x04, 0x00, 0x00, 0x00,
  0x07, 0x00, 0x00, 0x00, 0x69, 0x6e, 0x70, 0x75, 0x74, 0x5f, 0x31, 0x00,
  0x01, 0x00, 0x00, 0x00, 0x0c, 0x00, 0x00, 0x00, 0x08, 0x00, 0x0c, 0x00,
  0x04, 0x00, 0x08, 0x00, 0x08, 0x00, 0x00, 0x00, 0x08, 0x00, 0x00, 0x00,
  0x09, 0x00, 0x00, 0x00, 0x13, 0x00, 0x00, 0x00, 0x6d, 0x69, 0x6e, 0x5f,
  0x72, 0x75, 0x6e, 0x74, 0x69, 0x6d, 0x65, 0x5f, 0x76, 0x65, 0x72, 0x73,
  0x69, 0x6f, 0x6e, 0x00, 0x4a, 0xec, 0xff, 0xff, 0x04, 0x00, 0x00, 0x00,
  0x10, 0x00, 0x00, 0x00, 0x31, 0x2e, 0x35, 0x2e, 0x30, 0x00, 0x00, 0x00,
  0x00, 0x00, 0x00, 0x00, 0x00, 0x00, 0x00, 0x00, 0x0f, 0x00, 0x00, 0x00,
  0x4d, 0x4c, 0x49, 0x52, 0x20, 0x43, 0x6f, 0x6e, 0x76, 0x65, 0x72, 0x74,
  0x65, 0x64, 0x2e, 0x00, 0x00, 0x00, 0x0e, 0x00, 0x18, 0x00, 0x04, 0x00,
  0x08, 0x00, 0x0c, 0x00, 0x10, 0x00, 0x14, 0x00, 0x0e, 0x00, 0x00, 0x00,
  0x40, 0x00, 0x00, 0x00, 0x34, 0x00, 0x00, 0x00, 0x28, 0x00, 0x00, 0x00,
  0x14, 0x00, 0x00, 0x00, 0x04, 0x00, 0x00, 0x00, 0x04, 0x00, 0x00, 0x00,
  0x6d, 0x61, 0x69, 0x6e, 0x00, 0x00, 0x00, 0x00, 0x03, 0x00, 0x00, 0x00,
  0x98, 0x01, 0x00, 0x00, 0xf0, 0x00, 0x00, 0x00, 0x48, 0x00, 0x00, 0x00,
  0x01, 0x00, 0x00, 0x00, 0x07, 0x00, 0x00, 0x00, 0x01, 0x00, 0x00, 0x00,
  0x00, 0x00, 0x00, 0x00, 0x08, 0x00, 0x00, 0x00, 0x28, 0x15, 0x00, 0x00,
  0xdc, 0x14, 0x00, 0x00, 0xf0, 0x12, 0x00, 0x00, 0x7c, 0x12, 0x00, 0x00,
  0xdc, 0x11, 0x00, 0x00, 0xbc, 0x01, 0x00, 0x00, 0xec, 0x00, 0x00, 0x00,
  0x54, 0x00, 0x00, 0x00, 0x00, 0x00, 0x0e, 0x00, 0x18, 0x00, 0x08, 0x00,
  0x0c, 0x00, 0x10, 0x00, 0x07, 0x00, 0x14, 0x00, 0x0e, 0x00, 0x00, 0x00,
  0x00, 0x00, 0x00, 0x09, 0x01, 0x00, 0x00, 0x00, 0x1c, 0x00, 0x00, 0x00,
  0x10, 0x00, 0x00, 0x00, 0x04, 0x00, 0x00, 0x00, 0x1a, 0xed, 0xff, 0xff,
  0x00, 0x00, 0x80, 0x3f, 0x01, 0x00, 0x00, 0x00, 0x07, 0x00, 0x00, 0x00,
  0x01, 0x00, 0x00, 0x00, 0x06, 0x00, 0x00, 0x00, 0xac, 0xfe, 0xff, 0xff,
  0x19, 0x00, 0x00, 0x00, 0x00, 0x00, 0x00, 0x19, 0x01, 0x00, 0x00, 0x00,
  0x5c, 0xeb, 0xff, 0xff, 0x40, 0x00, 0x00, 0x00, 0x08, 0x00, 0x00, 0x00,
  0x18, 0x00, 0x00, 0x00, 0x40, 0x00, 0x00, 0x00, 0x04, 0x00, 0x00, 0x00,
  0x02, 0x00, 0x00, 0x00, 0xff, 0xff, 0xff, 0xff, 0x64, 0x00, 0x00, 0x00,
  0x19, 0x00, 0x00, 0x00, 0x53, 0x74, 0x61, 0x74, 0x65, 0x66, 0x75, 0x6c,
  0x50, 0x61, 0x72, 0x74, 0x69, 0x74, 0x69, 0x6f, 0x6e, 0x65, 0x64, 0x43,
  0x61, 0x6c, 0x6c, 0x3a, 0x30, 0x00, 0x00, 0x00, 0x02, 0x00, 0x00, 0x00,
  0x01, 0x00, 0x00, 0x00, 0x64, 0x00, 0x00, 0x00, 0x9c, 0xed, 0xff, 0xff,
  0x00, 0x00, 0x0e, 0x00, 0x14, 0x00, 0x00, 0x00, 0x08, 0x00, 0x0c, 0x00,
  0x07, 0x00, 0x10, 0x00, 0x0e, 0x00, 0x00, 0x00, 0x00, 0x00, 0x00, 0x08,
  0x18, 0x00, 0x00, 0x00, 0x0c, 0x00, 0x00, 0x00, 0x04, 0x00, 0x00, 0x00,
  0x6c, 0xeb, 0xff, 0xff, 0x01, 0x00, 0x00, 0x00, 0x06, 0x00, 0x00, 0x00,
  0x03, 0x00, 0x00, 0x00, 0x05, 0x00, 0x00, 0x00, 0x04, 0x00, 0x00, 0x00,
  0x01, 0x00, 0x00, 0x00, 0xf0, 0xeb, 0xff, 0xff, 0x50, 0x00, 0x00, 0x00,
  0x07, 0x00, 0x00, 0x00, 0x18, 0x00, 0x00, 0x00, 0x50, 0x00, 0x00, 0x00,
  0x04, 0x00, 0x00, 0x00, 0x02, 0x00, 0x00, 0x00, 0xff, 0xff, 0xff, 0xff,
  0x64, 0x00, 0x00, 0x00, 0x2a, 0x00, 0x00, 0x00, 0x6d, 0x6f, 0x64, 0x65,
  0x6c, 0x2f, 0x64, 0x65, 0x6e, 0x73, 0x65, 0x5f, 0x31, 0x2f, 0x4d, 0x61,
  0x74, 0x4d, 0x75, 0x6c, 0x3b, 0x6d, 0x6f, 0x64, 0x65, 0x6c, 0x2f, 0x64,
  0x65, 0x6e, 0x73, 0x65, 0x5f, 0x31, 0x2f, 0x42, 0x69, 0x61, 0x73, 0x41,
  0x64, 0x64, 0x00, 0x00, 0x02, 0x00, 0x00, 0x00, 0x01, 0x00, 0x00, 0x00,
  0x64, 0x00, 0x00, 0x00, 0x40, 0xee, 0xff, 0xff, 0x00, 0x00, 0x0e, 0x00,
  0x16, 0x00, 0x00, 0x00, 0x08, 0x00, 0x0c, 0x00, 0x07, 0x00, 0x10, 0x00,
  0x0e, 0x00, 0x00, 0x00, 0x00, 0x00, 0x00, 0x08, 0x24, 0x00, 0x00, 0x00,
  0x18, 0x00, 0x00, 0x00, 0x0c, 0x00, 0x00, 0x00, 0x00, 0x00, 0x06, 0x00,
  0x08, 0x00, 0x07, 0x00, 0x06, 0x00, 0x00, 0x00, 0x00, 0x00, 0x00, 0x01,
  0x01, 0x00, 0x00, 0x00, 0x05, 0x00, 0x00, 0x00, 0x03, 0x00, 0x00, 0x00,
  0x00, 0x00, 0x00, 0x00, 0x03, 0x00, 0x00, 0x00, 0x02, 0x00, 0x00, 0x00,
  0x0c, 0x00, 0x10, 0x00, 0x0b, 0x00, 0x00, 0x00, 0x0c, 0x00, 0x04, 0x00,
  0x0c, 0x00, 0x00, 0x00, 0x09, 0x00, 0x00, 0x00, 0x00, 0x00, 0x00, 0x09,
  0x01, 0x00, 0x00, 0x00, 0xbc, 0xec, 0xff, 0xff, 0x5c, 0x00, 0x00, 0x00,
  0x06, 0x00, 0x00, 0x00, 0x18, 0x00, 0x00, 0x00, 0x5c, 0x00, 0x00, 0x00,
  0x04, 0x00, 0x00, 0x00, 0x02, 0x00, 0x00, 0x00, 0xff, 0xff, 0xff, 0xff,
  0x0a, 0x00, 0x00, 0x00, 0x37, 0x00, 0x00, 0x00, 0x6d, 0x6f, 0x64, 0x65,
  0x6c, 0x2f, 0x64, 0x65, 0x6e, 0x73, 0x65, 0x2f, 0x4d, 0x61, 0x74, 0x4d,
  0x75, 0x6c, 0x3b, 0x6d, 0x6f, 0x64, 0x65, 0x6c, 0x2f, 0x64, 0x65, 0x6e,
  0x73, 0x65, 0x2f, 0x42, 0x69, 0x61, 0x73, 0x41, 0x64, 0x64, 0x3b, 0x6d,
  0x6f, 0x64, 0x65, 0x6c, 0x2f, 0x64, 0x65, 0x6e, 0x73, 0x65, 0x2f, 0x52,
  0x65, 0x6c, 0x75, 0x00, 0x02, 0x00, 0x00, 0x00, 0x01, 0x00, 0x00, 0x00,
  0x0a, 0x00, 0x00, 0x00, 0xc0, 0xec, 0xff, 0xff, 0x12, 0xef, 0xff, 0xff,
  0x04, 0x00, 0x00, 0x00, 0xa0, 0x0f, 0x00, 0x00, 0xed, 0xf2, 0x28, 0x42,
  0xf8, 0x54, 0x81, 0x3d, 0x80, 0x04, 0x1d, 0xbc, 0x08, 0x96, 0xd9, 0xc0,
  0x39, 0x24, 0x2c, 0xc1, 0xd2, 0x50, 0xd5, 0xc0, 0x5f, 0x0d, 0x10, 0xc1,
  0xbe, 0xe1, 0x49, 0xbe, 0x9e, 0x08, 0x07, 0xc1, 0x82, 0xdf, 0xdc, 0x41,
  0xc6, 0x39, 0x01, 0x42, 0x74, 0x5b, 0xc3, 0xbd, 0x16, 0x3c, 0x0f, 0x3e,
  0xbf, 0x50, 0xb2, 0xc0, 0xf3, 0x74, 0x00, 0xc1, 0x91, 0x16, 0xa0, 0xc0,
  0x5c, 0xfb, 0xcb, 0xc0, 0xe2, 0xbb, 0xc3, 0xbd, 0x5a, 0xa0, 0xd5, 0xc0,
  0xcc, 0x6d, 0xaa, 0x41, 0x29, 0xb1, 0xcc, 0x41, 0x40, 0xdd, 0x42, 0x3b,
  0x48, 0x4d, 0x13, 0xbd, 0xc7, 0x47, 0x93, 0xc0, 0x7b, 0x00, 0xcb, 0xc0,
  0xb6, 0x37, 0x7e, 0xc0, 0x4a, 0xeb, 0x9c, 0xc0, 0x5b, 0x39, 0x67, 0xbe,
  0x30, 0x2e, 0xa7, 0xc0, 0x44, 0x50, 0x89, 0x41, 0x2e, 0x55, 0xa6, 0x41,
  0x52, 0x4a, 0x66, 0xbe, 0x5e, 0xf7, 0x5d, 0x3e, 0x63, 0x8d, 0x76, 0xc0,
  0xf5, 0x0e, 0xa7, 0xc0, 0xe0, 0x50, 0x52, 0xc0, 0xac, 0x11, 0x7d, 0xc0,
  0xec, 0xdb, 0x6d, 0xbe, 0xb6, 0xda, 0x83, 0xc0, 0x69, 0x5e, 0x64, 0x41,
  0x26, 0xd5, 0x8b, 0x41, 0x00, 0x39, 0x4b, 0x3e, 0xe2, 0xf6, 0x13, 0xbe,
  0x7b, 0xf9, 0x53, 0xc0, 0x80, 0x4a, 0x8f, 0xc0, 0xa8, 0x89, 0x35, 0xc0,
  0x96, 0xaf, 0x57, 0xc0, 0x88, 0x5e, 0x20, 0xbd, 0xf6, 0xaa, 0x55, 0xc0,
  0xe1, 0xe1, 0x44, 0x41, 0x72, 0x9c, 0x70, 0x41, 0xc8, 0x06, 0x22, 0xbd,
  0x18, 0x02, 0xb4, 0xbd, 0x9b, 0xb4, 0x39, 0xc0, 0x1e, 0xa3, 0x7c, 0xc0,
  0xff, 0xee, 0x20, 0xc0, 0x48, 0x26, 0x3c, 0xc0, 0x36, 0xc8, 0x54, 0x3e,
  0x7a, 0x4d, 0x30, 0xc0, 0x30, 0xc2, 0x2d, 0x41, 0x35, 0x8f, 0x53, 0x41,
  0x80, 0x0e, 0xde, 0x3b, 0xe8, 0x08, 0x64, 0xbd, 0x74, 0xdc, 0x27, 0xc0,
  0xa9, 0x35, 0x64, 0xc0, 0x07, 0xe3, 0x12, 0xc0, 0xd0, 0x31, 0x2a, 0xc0,
  0x92, 0x97, 0x2b, 0x3e, 0x15, 0x67, 0x16, 0xc0, 0x78, 0xdf, 0x1c, 0x41,
  0x9c, 0x61, 0x3b, 0x41, 0xe1, 0xbe, 0x58, 0xbe, 0x30, 0xf2, 0x50, 0x3e,
  0x54, 0x5c, 0x18, 0xc0, 0x68, 0x17, 0x50, 0xc0, 0x00, 0x2d, 0x06, 0xc0,
  0x51, 0x18, 0x1a, 0xc0, 0xa4, 0x45, 0xcc, 0xbd, 0x81, 0xea, 0xff, 0xbf,
  0x10, 0x95, 0x0e, 0x41, 0x35, 0xa7, 0x27, 0x41, 0x58, 0xca, 0x37, 0x3d,
  0xce, 0x79, 0x69, 0x3e, 0xcd, 0x2e, 0x0c, 0xc0, 0x58, 0x7a, 0x40, 0xc0,
  0x3f, 0xa7, 0xf8, 0xbf, 0x9b, 0xc5, 0x0d, 0xc0, 0x38, 0xc2, 0x5e, 0xbe,
  0xef, 0x76, 0xdb, 0xbf, 0xd9, 0x23, 0x03, 0x41, 0x4b, 0x05, 0x16, 0x41,
  0xde, 0xa5, 0xd1, 0xbd, 0x99, 0x8e, 0x25, 0xbe, 0x12, 0xe1, 0x01, 0xc0,
  0x7d, 0x2d, 0x32, 0xc0, 0x90, 0x84, 0xec, 0xbf, 0x4e, 0x3e, 0x02, 0xc0,
  0x63, 0xac, 0x01, 0xbe, 0x2d, 0x75, 0xbf, 0xbf, 0xa2, 0xc4, 0xf1, 0x40,
  0x54, 0xf4, 0x06, 0x41, 0xb8, 0x22, 0xef, 0x3d, 0x0c, 0xd7, 0x17, 0xbe,
  0x9b, 0x0a, 0xf2, 0xbf, 0xb9, 0x74, 0x26, 0xc0, 0x3d, 0x58, 0xdb, 0xbf,
  0x3f, 0x17, 0xf4, 0xbf, 0x37, 0xc0, 0x6c, 0xbe, 0xaa, 0x9c, 0xa5, 0xbf,
  0x76, 0x83, 0xe0, 0x40, 0xbe, 0x11, 0xf2, 0x40, 0x80, 0x9f, 0xfd, 0xbc,
  0x52, 0xf7, 0x40, 0x3e, 0x0f, 0xe1, 0xe1, 0xbf, 0xec, 0xb0, 0x1b, 0xc0,
  0x93, 0x89, 0xd0, 0xbf, 0x59, 0xf2, 0xe1, 0xbf, 0xea, 0xd1, 0x26, 0x3e,
  0xb9, 0xb8, 0x8f, 0xbf, 0xf9, 0x60, 0xd0, 0x40, 0xd1, 0xb2, 0xd9, 0x40,
  0x04, 0xa4, 0x10, 0xbd, 0x24, 0x31, 0x1d, 0xbd, 0xb6, 0xec, 0xd4, 0xbf,
  0x4b, 0x0e, 0x12, 0xc0, 0xe0, 0xf9, 0xc3, 0xbf, 0x1c, 0x0c, 0xd5, 0xbf,
  0x50, 0x53, 0x14, 0xbe, 0x28, 0x01, 0x7b, 0xbf, 0x1a, 0x18, 0xc2, 0x40,
  0x67, 0xfd, 0xc1, 0x40, 0xb4, 0x48, 0x8b, 0xbd, 0x64, 0x98, 0xfc, 0x3d,
  0x0e, 0xd8, 0xc6, 0xbf, 0xc7, 0x60, 0x09, 0xc0, 0x2e, 0x3a, 0xbc, 0xbf,
  0x43, 0xdf, 0xc4, 0xbf, 0xc8, 0x3a, 0x86, 0x3d, 0x25, 0x36, 0x55, 0xbf,
  0x17, 0xf8, 0xb4, 0x40, 0x0d, 0xf3, 0xac, 0x40, 0x00, 0x0e, 0xaa, 0x39,
  0x5a, 0x83, 0x61, 0xbe, 0xef, 0x5d, 0xbc, 0xbf, 0xad, 0xa2, 0x01, 0xc0,
  0x20, 0x25, 0xb2, 0xbf, 0x9f, 0x6a, 0xba, 0xbf, 0x66, 0xdb, 0x3a, 0xbe,
  0xaa, 0x70, 0x38, 0xbf, 0xaf, 0xbc, 0xa8, 0x40, 0x3d, 0xc5, 0x98, 0x40,
  0xce, 0x60, 0x59, 0x3e, 0x80, 0xef, 0xec, 0xba, 0x3f, 0x21, 0xb2, 0xbf,
  0xd9, 0x23, 0xf3, 0xbf, 0x5e, 0x25, 0xa9, 0xbf, 0x81, 0x26, 0xb0, 0xbf,
  0xe0, 0xf9, 0xbf, 0x3c, 0x63, 0xf4, 0x1e, 0xbf, 0x19, 0x2a, 0x9d, 0x40,
  0xe6, 0xed, 0x85, 0x40, 0x20, 0xe8, 0x94, 0x3c, 0x7c, 0x3d, 0xfa, 0x3d,
  0x28, 0x5e, 0xa7, 0xbf, 0xb5, 0x35, 0xe6, 0xbf, 0xeb, 0x31, 0xa3, 0xbf,
  0xe3, 0x05, 0xa6, 0xbf, 0x80, 0xa6, 0xe6, 0xbd, 0x1f, 0x4f, 0x04, 0xbf,
  0x2f, 0x91, 0x92, 0x40, 0xa0, 0x9d, 0x67, 0x40, 0xac, 0xb1, 0x26, 0xbe,
  0xbc, 0xc0, 0xbd, 0x3d, 0x97, 0x81, 0x9d, 0xbf, 0x80, 0xfe, 0xd8, 0xbf,
  0xe8, 0x10, 0x9d, 0xbf, 0xa1, 0x74, 0x9a, 0xbf, 0x48, 0xac, 0x2f, 0xbe,
  0xd5, 0xd9, 0xda, 0xbe, 0xec, 0x59, 0x88, 0x40, 0x99, 0x56, 0x45, 0x40,
  0x6a, 0x7d, 0xb0, 0xbd, 0xb4, 0x40, 0x5c, 0xbe, 0xe5, 0xfb, 0x94, 0xbf,
  0x3f, 0x6b, 0xcd, 0xbf, 0xc9, 0x9d, 0x96, 0xbf, 0x90, 0x38, 0x91, 0xbf,
  0x19, 0x82, 0x5a, 0xbe, 0x1a, 0xab, 0xac, 0xbe, 0x13, 0x55, 0x7d, 0x40,
  0x2b, 0x12, 0x25, 0x40, 0x8c, 0xc8, 0xc0, 0x3d, 0x7c, 0x3a, 0x88, 0xbd,
  0x00, 0x43, 0x8c, 0xbf, 0xd7, 0xdb, 0xc0, 0xbf, 0x93, 0xf6, 0x8f, 0xbf,
  0xdb, 0xc2, 0x87, 0xbf, 0x70, 0xb9, 0x1f, 0x3e, 0x8b, 0xfa, 0x7d, 0xbe,
  0x35, 0x37, 0x6a, 0x40, 0x06, 0x6d, 0x05, 0x40, 0xf4, 0x23, 0x1f, 0xbe,
  0xa3, 0x2b, 0x3c, 0xbe, 0x30, 0x0b, 0x83, 0xbf, 0x6d, 0x6c, 0xb6, 0xbf,
  0xbd, 0x38, 0x8a, 0xbf, 0x78, 0x50, 0x7f, 0xbf, 0xa0, 0x8c, 0xfe, 0x3d,
  0x0b, 0x28, 0x26, 0xbe, 0xc1, 0xeb, 0x58, 0x40, 0x1a, 0x54, 0xcc, 0x3f,
  0x28, 0x4b, 0x87, 0xbd, 0xf4, 0xd1, 0x5e, 0x3e, 0x15, 0xdd, 0x77, 0xbf,
  0x9a, 0x80, 0xac, 0xbf, 0xa9, 0x7a, 0x83, 0xbf, 0xdf, 0xa0, 0x71, 0xbf,
  0x40, 0x74, 0x82, 0x3b, 0xfa, 0x1f, 0xbb, 0xbd, 0x01, 0x9b, 0x47, 0x40,
  0x01, 0xf7, 0x91, 0x3f, 0xac, 0x92, 0x97, 0x3d, 0xbe, 0xfa, 0x53, 0xbe,
  0x8b, 0xfe, 0x6a, 0xbf, 0xa7, 0xe8, 0xa0, 0xbf, 0x14, 0xfc, 0x7d, 0xbf,
  0x4e, 0xae, 0x62, 0xbf, 0x8c, 0x08, 0xb4, 0x3d, 0xa9, 0x20, 0xd3, 0xbc,
  0x22, 0x79, 0x37, 0x40, 0xdd, 0x67, 0x2f, 0x3f, 0xc6, 0xd1, 0xd1, 0xbd,
  0x21, 0x3e, 0xe9, 0xbd, 0x2b, 0xcd, 0x5c, 0xbf, 0xb3, 0x11, 0x98, 0xbf,
  0xa8, 0x73, 0x6e, 0xbf, 0x1f, 0x72, 0x52, 0xbf, 0x74, 0x7e, 0xbc, 0x3d,
  0xfb, 0xac, 0x37, 0x3d, 0x75, 0x17, 0x27, 0x40, 0x1b, 0x38, 0x83, 0x3e,
  0x5d, 0x34, 0x69, 0xbe, 0xdc, 0x9b, 0x62, 0x3e, 0x6e, 0x9b, 0x50, 0xbf,
  0xa9, 0x43, 0x8e, 0xbf, 0x2e, 0x95, 0x68, 0xbf, 0x72, 0xca, 0x42, 0xbf,
  0xb8, 0x02, 0xe9, 0x3d, 0xe6, 0xca, 0xa5, 0x3d, 0x4f, 0x10, 0x17, 0x40,
  0xf2, 0x2d, 0x40, 0xbe, 0xb0, 0x33, 0x03, 0xbe, 0x36, 0x1a, 0x08, 0x3e,
  0x96, 0x71, 0x43, 0xbf, 0x4a, 0x77, 0x86, 0xbf, 0x7c, 0x38, 0x59, 0xbf,
  0xa0, 0x86, 0x39, 0xbf, 0x48, 0x96, 0x09, 0x3e, 0x67, 0x83, 0x23, 0x3e,
  0x4b, 0xe4, 0x07, 0x40, 0xc2, 0x3d, 0x19, 0xbf, 0xf8, 0xb3, 0x4d, 0x3d,
  0x30, 0x58, 0x38, 0xbc, 0xd6, 0xe6, 0x34, 0xbf, 0xe5, 0xe5, 0x79, 0xbf,
  0x6b, 0x87, 0x53, 0xbf, 0x65, 0x6b, 0x2c, 0xbf, 0xa2, 0x93, 0x51, 0x3e,
  0xfd, 0x08, 0x57, 0x3e, 0xae, 0xfd, 0xf1, 0x3f, 0xde, 0x80, 0x81, 0xbf,
  0xc4, 0x6c, 0xad, 0x3d, 0x98, 0xa5, 0x3c, 0x3d, 0xb2, 0xae, 0x28, 0xbf,
  0x54, 0x4d, 0x69, 0xbf, 0xc6, 0xa1, 0x51, 0xbf, 0x57, 0x21, 0x1d, 0xbf,
  0x24, 0x22, 0x27, 0xbe, 0x91, 0xf1, 0x85, 0x3e, 0x32, 0x54, 0xd4, 0x3f,
  0x61, 0x35, 0xb5, 0xbf, 0xba, 0x86, 0x08, 0xbe, 0x7c, 0xf0, 0x40, 0xbd,
  0x6c, 0xd4, 0x1d, 0xbf, 0x99, 0xa6, 0x57, 0xbf, 0xb0, 0x18, 0x48, 0xbf,
  0x35, 0x35, 0x12, 0xbf, 0x90, 0x88, 0x5c, 0x3e, 0x4f, 0x85, 0x9d, 0x3e,
  0x79, 0x5b, 0xb7, 0x3f, 0x59, 0xce, 0xe8, 0xbf, 0xf8, 0xe6, 0x82, 0x3d,
  0xc2, 0x1a, 0x41, 0x3e, 0x74, 0x53, 0x0f, 0xbf, 0x81, 0xbf, 0x48, 0xbf,
  0xdb, 0xc8, 0x3c, 0xbf, 0x0b, 0x64, 0x03, 0xbf, 0x24, 0xd9, 0x23, 0x3e,
  0xb4, 0xff, 0xb5, 0x3e, 0x5e, 0x54, 0x9b, 0x3f, 0xd6, 0x70, 0x0d, 0xc0,
  0x28, 0xc9, 0xe7, 0x3d, 0xc2, 0x82, 0x55, 0x3e, 0xae, 0x85, 0x04, 0xbf,
  0xf1, 0x84, 0x37, 0xbf, 0x17, 0x8a, 0x32, 0xbf, 0x12, 0xb0, 0xef, 0xbe,
  0x3c, 0xe3, 0x4c, 0xbd, 0xc3, 0x1e, 0xce, 0x3e, 0x94, 0x7b, 0x7f, 0x3f,
  0x88, 0x21, 0x26, 0xc0, 0x3e, 0x9c, 0x07, 0x3e, 0xd0, 0xf7, 0xb1, 0x3c,
  0xda, 0xc6, 0xf3, 0xbe, 0x92, 0xd6, 0x26, 0xbf, 0x80, 0x32, 0x2f, 0xbf,
  0xda, 0xf3, 0xd4, 0xbe, 0x00, 0xae, 0x9b, 0xbd, 0x6f, 0xdf, 0xe0, 0x3e,
  0xa5, 0x00, 0x47, 0x3f, 0x6e, 0xeb, 0x3f, 0xc0, 0xd6, 0xa2, 0x5c, 0xbe,
  0xde, 0x9f, 0x1f, 0x3e, 0xfc, 0xb3, 0xdc, 0xbe, 0x8a, 0x1f, 0x19, 0xbf,
  0x95, 0xcc, 0x20, 0xbf, 0x51, 0x9c, 0xc0, 0xbe, 0x10, 0xb7, 0xef, 0xbc,
  0x41, 0x09, 0x01, 0x3f, 0x11, 0xf0, 0x13, 0x3f, 0x9a, 0x0d, 0x58, 0xc0,
  0x68, 0x2d, 0x85, 0x3d, 0x02, 0xe9, 0x07, 0x3e, 0xf4, 0x02, 0xcb, 0xbe,
  0x2e, 0x6c, 0x0a, 0xbf, 0x80, 0x9d, 0x1a, 0xbf, 0x45, 0xe6, 0xac, 0xbe,
  0x15, 0xce, 0x44, 0xbe, 0x14, 0x94, 0x0c, 0x3f, 0x44, 0xbf, 0xb7, 0x3e,
  0x2e, 0x4a, 0x70, 0xc0, 0xaf, 0x9f, 0x64, 0xbe, 0xb4, 0x80, 0x3d, 0x3e,
  0xbc, 0xcf, 0xac, 0xbe, 0x15, 0x85, 0xf4, 0xbe, 0x7f, 0x5b, 0x17, 0xbf,
  0xef, 0xed, 0x96, 0xbe, 0x44, 0xbc, 0x2b, 0x3e, 0xb3, 0x56, 0x17, 0x3f,
  0xcf, 0x8d, 0x1a, 0x3e, 0x00, 0xd5, 0x84, 0xc0, 0xde, 0xd7, 0x95, 0xbd,
  0x3a, 0xe1, 0x53, 0xbe, 0x1e, 0xc8, 0x9f, 0xbe, 0x9e, 0x75, 0xdc, 0xbe,
  0xef, 0x43, 0x0d, 0xbf, 0x0e, 0xcb, 0x84, 0xbe, 0x12, 0x59, 0x51, 0xbe,
  0x19, 0x7c, 0x1c, 0x3f, 0xf9, 0xd4, 0x5e, 0xbd, 0xc3, 0xca, 0x90, 0xc0,
  0x90, 0x53, 0x97, 0x3d, 0xda, 0x65, 0x35, 0x3e, 0x31, 0x43, 0x86, 0xbe,
  0xcc, 0x79, 0xba, 0xbe, 0xbb, 0xdd, 0x05, 0xbf, 0x18, 0x39, 0x5e, 0xbe,
  0xec, 0xc0, 0x53, 0xbd, 0x41, 0xe1, 0x26, 0x3f, 0x4f, 0xee, 0x85, 0xbe,
  0xe4, 0xbc, 0x9c, 0xc0, 0xde, 0x11, 0x1f, 0x3e, 0x16, 0xa8, 0xbe, 0xbd,
  0xc3, 0x86, 0x67, 0xbe, 0x93, 0x31, 0x9e, 0xbe, 0x91, 0xf0, 0x05, 0xbf,
  0xd6, 0x0e, 0x29, 0xbe, 0xc0, 0x91, 0x86, 0x3c, 0x7f, 0xf5, 0x2d, 0x3f,
  0xe8, 0x25, 0xf2, 0xbe, 0x7a, 0x3c, 0xa9, 0xc0, 0x72, 0x37, 0x32, 0x3e,
  0xb6, 0x33, 0x11, 0xbe, 0xb1, 0xbb, 0x3b, 0xbe, 0xc4, 0xb2, 0x83, 0xbe,
  0x74, 0x73, 0xe8, 0xbe, 0x88, 0x47, 0x07, 0xbe, 0x4a, 0xe7, 0xca, 0xbd,
  0x7c, 0xae, 0x36, 0x3f, 0xc6, 0x39, 0x2c, 0xbf, 0x2e, 0x60, 0xb5, 0xc0,
  0xdf, 0xea, 0x5e, 0xbe, 0xbc, 0xa9, 0xe2, 0x3d, 0x0c, 0x4f, 0x12, 0xbe,
  0xb4, 0xdd, 0x4d, 0xbe, 0xa8, 0xff, 0xdc, 0xbe, 0x15, 0xf1, 0xc2, 0xbd,
  0x3a, 0x11, 0xaa, 0xbd, 0x07, 0xbe, 0x42, 0x3f, 0x78, 0xed, 0x5e, 0xbf,
  0x0b, 0x23, 0xc1, 0xc0, 0x98, 0x65, 0xba, 0x3d, 0xc4, 0xf3, 0x27, 0xbe,
  0xda, 0xdd, 0xca, 0xbd, 0x80, 0xef, 0x1a, 0xbe, 0x91, 0x90, 0xda, 0xbe,
  0x30, 0x30, 0x22, 0xbd, 0xd8, 0x68, 0x2d, 0xbe, 0x00, 0x5a, 0x49, 0x3f,
  0x63, 0xcb, 0x8b, 0xbf, 0x38, 0x7f, 0xcd, 0xc0, 0xb8, 0x13, 0x62, 0xbd,
  0xd8, 0x0f, 0xc7, 0xbd, 0xca, 0x40, 0x81, 0xbd, 0x87, 0xbf, 0xba, 0xbd,
  0xe8, 0x03, 0xd0, 0xbe, 0x58, 0xb8, 0xe1, 0xbb, 0x00, 0xe2, 0x0d, 0x3e,
  0x1a, 0xa3, 0x4e, 0x3f, 0x31, 0x5f, 0xa5, 0xbf, 0x70, 0xc9, 0xd9, 0xc0,
  0xe0, 0x6d, 0x39, 0x3e, 0xc0, 0xc9, 0x0f, 0xbe, 0x25, 0xbd, 0x0e, 0xbd,
  0xfa, 0xe0, 0xf4, 0xbc, 0xca, 0x1e, 0xb6, 0xbe, 0x23, 0xfd, 0xab, 0x3c,
  0xe0, 0x45, 0xda, 0x3d, 0x10, 0xf0, 0x57, 0x3f, 0x55, 0xf1, 0xbe, 0xbf,
  0x75, 0x1d, 0xe6, 0xc0, 0xa8, 0x43, 0xac, 0xbc, 0x48, 0x3e, 0xe0, 0xbc,
  0xa2, 0x4f, 0xe7, 0x3c, 0x2e, 0x0c, 0x6e, 0x3c, 0x8a, 0x66, 0xb4, 0xbe,
  0x29, 0x25, 0x98, 0x3d, 0x98, 0x0b, 0x3c, 0x3e, 0x13, 0xec, 0x60, 0x3f,
  0x71, 0x5a, 0xd9, 0xbf, 0xb2, 0xcd, 0xf2, 0xc0, 0x19, 0x27, 0x69, 0xbe,
  0xc0, 0x1c, 0x3a, 0xbe, 0x9d, 0x9c, 0x71, 0x3d, 0x35, 0xac, 0x94, 0x3d,
  0xe5, 0xb2, 0x99, 0xbe, 0xd4, 0x9d, 0xbe, 0x3d, 0xea, 0x64, 0x0b, 0x3e,
  0x50, 0x44, 0x67, 0x3f, 0xc3, 0xb9, 0xf3, 0xbf, 0x49, 0x6b, 0xff, 0xc0,
  0x00, 0x2f, 0xac, 0x3c, 0x80, 0x5c, 0x43, 0xbd, 0xf3, 0xaf, 0xe1, 0x3d,
  0x22, 0x19, 0xea, 0x3d, 0xd5, 0x4f, 0x8e, 0xbe, 0xf3, 0xaa, 0x19, 0x3e,
  0xf6, 0x84, 0x22, 0x3e, 0x5c, 0x8d, 0x70, 0x3f, 0x74, 0x21, 0x07, 0xc0,
  0x34, 0x0a, 0x06, 0xc1, 0xf4, 0x5a, 0xe3, 0x3d, 0xe3, 0xa4, 0xf4, 0xbd,
  0xac, 0xff, 0x13, 0x3e, 0x69, 0x25, 0x32, 0x3e, 0xb0, 0xc1, 0x8a, 0xbe,
  0x8d, 0x67, 0x37, 0x3e, 0x68, 0x41, 0xc1, 0x3d, 0x20, 0xf3, 0x75, 0x3f,
  0x4d, 0x60, 0x14, 0xc0, 0xcc, 0x7b, 0x0c, 0xc1, 0x20, 0x42, 0xd4, 0xbb,
  0xa4, 0x5a, 0xac, 0xbd, 0x51, 0x44, 0x3c, 0x3e, 0x54, 0x59, 0x63, 0x3e,
  0xdf, 0x4f, 0x6f, 0xbe, 0xba, 0xc9, 0x5c, 0x3e, 0x46, 0x2d, 0x10, 0x3e,
  0xdb, 0xb4, 0x7a, 0x3f, 0x4f, 0xad, 0x21, 0xc0, 0x94, 0xca, 0x12, 0xc1,
  0xd4, 0x3c, 0xd5, 0x3d, 0xb8, 0x47, 0x37, 0x3d, 0xa3, 0x64, 0x62, 0x3e,
  0x12, 0x18, 0x8f, 0x3e, 0xed, 0x6f, 0x6b, 0xbe, 0x1d, 0x2c, 0x86, 0x3e,
  0x60, 0x2c, 0x4e, 0x3d, 0x7f, 0xaf, 0x81, 0x3f, 0x67, 0x47, 0x30, 0xc0,
  0xa5, 0x5f, 0x19, 0xc1, 0x5b, 0x9b, 0x50, 0xbe, 0x0a, 0xcf, 0x0d, 0x3e,
  0x6e, 0xb6, 0x88, 0x3e, 0x7b, 0xdf, 0xa7, 0x3e, 0xfb, 0x05, 0x52, 0xbe,
  0x14, 0x80, 0x96, 0x3e, 0xd0, 0x3a, 0x55, 0x3d, 0x5a, 0xdf, 0x86, 0x3f,
  0x64, 0x73, 0x3d, 0xc0, 0xfe, 0xec, 0x1f, 0xc1, 0x10, 0xaf, 0x89, 0x3d,
  0xc4, 0xd1, 0xcc, 0x3d, 0xdc, 0x90, 0x9e, 0x3e, 0xcb, 0x76, 0xc4, 0x3e,
  0xe9, 0xfd, 0x15, 0xbe, 0x62, 0xf7, 0xa5, 0x3e, 0x82, 0xc9, 0x27, 0xbe,
  0xe3, 0xe6, 0x88, 0x3f, 0x6f, 0x3b, 0x4c, 0xc0, 0x5d, 0xf3, 0x26, 0xc1,
  0x72, 0xbc, 0x2c, 0x3e, 0xb4, 0xa8, 0xb3, 0x3d, 0xaa, 0xf3, 0xab, 0x3e,
  0xd7, 0xc1, 0xdd, 0x3e, 0x5a, 0x6a, 0x21, 0xbe, 0xdd, 0xdb, 0xb7, 0x3e,
  0x80, 0xc8, 0x08, 0x3b, 0x08, 0x21, 0x8b, 0x3f, 0xf3, 0x54, 0x59, 0xc0,
  0x32, 0xd0, 0x2d, 0xc1, 0xa0, 0x44, 0xac, 0x3d, 0xb5, 0x1f, 0x6d, 0xbe,
  0x7a, 0xc0, 0xc5, 0x3e, 0x13, 0xbc, 0xfb, 0x3e, 0x6c, 0x2a, 0xfa, 0xbd,
  0x1c, 0x18, 0xd1, 0x3e, 0x18, 0x75, 0x52, 0x3e, 0xb6, 0x03, 0x8e, 0x3f,
  0xc4, 0x6f, 0x67, 0xc0, 0x3e, 0xc6, 0x34, 0xc1, 0x02, 0xa4, 0x26, 0x3e,
  0x60, 0x26, 0x3b, 0xbd, 0x57, 0x11, 0xdb, 0x3e, 0x06, 0xce, 0x0a, 0x3f,
  0x17, 0x92, 0xa7, 0xbd, 0x01, 0x3e, 0xe0, 0x3e, 0x48, 0x67, 0x0f, 0xbe,
  0x8f, 0x08, 0x94, 0x3f, 0xde, 0xb2, 0x75, 0xc0, 0x5c, 0xe4, 0x3b, 0xc1,
  0xf7, 0x86, 0x4a, 0xbe, 0x58, 0x01, 0x94, 0xbc, 0x19, 0xb0, 0xf5, 0x3e,
  0xe9, 0xd3, 0x18, 0x3f, 0x41, 0xbb, 0x95, 0xbd, 0xc7, 0x09, 0xf9, 0x3e,
  0xe2, 0xf4, 0x6b, 0x3e, 0x20, 0x0b, 0x94, 0x3f, 0x35, 0x86, 0x82, 0xc0,
  0x09, 0x43, 0x43, 0xc1, 0xcc, 0x73, 0x5a, 0x3e, 0x04, 0xa6, 0x6a, 0xbe,
  0x32, 0x58, 0x05, 0x3f, 0x53, 0xff, 0x23, 0x3f, 0xf1, 0x26, 0x0e, 0xbd,
  0x12, 0xfc, 0x05, 0x3f, 0x94, 0x4f, 0x22, 0xbd, 0x85, 0x9f, 0x9a, 0x3f,
  0x43, 0xaf, 0x89, 0xc0, 0x3c, 0xaf, 0x4a, 0xc1, 0x70, 0x9b, 0xe8, 0x3c,
  0x38, 0x1e, 0x4c, 0xbe, 0x84, 0x43, 0x12, 0x3f, 0x11, 0xa4, 0x34, 0x3f,
  0xf6, 0x12, 0x52, 0xbc, 0x08, 0xb2, 0x10, 0x3f, 0x20, 0xde, 0xe5, 0x3b,
  0x6d, 0x9c, 0x9c, 0x3f, 0x9d, 0x5f, 0x91, 0xc0, 0xfb, 0x02, 0x52, 0xc1,
  0x48, 0x5e, 0xca, 0xbd, 0x2e, 0x7d, 0x52, 0x3e, 0x42, 0x1a, 0x1b, 0x3f,
  0xd7, 0xe5, 0x41, 0x3f, 0x16, 0x96, 0x45, 0x3c, 0xcf, 0xbf, 0x18, 0x3f,
  0xa0, 0xb3, 0x95, 0xbc, 0x5b, 0x45, 0x9e, 0x3f, 0xab, 0x85, 0x99, 0xc0,
  0x00, 0x48, 0x5a, 0xc1, 0xb2, 0xdb, 0x2a, 0x3e, 0x58, 0xb4, 0x09, 0xbd,
  0xb9, 0x6c, 0x27, 0x3f, 0x89, 0xf2, 0x4f, 0x3f, 0x40, 0x3c, 0x36, 0x3c,
  0xf9, 0x2d, 0x22, 0x3f, 0x37, 0xa1, 0x68, 0xbe, 0x5a, 0x48, 0xa2, 0x3f,
  0x55, 0xfe, 0xa0, 0xc0, 0xff, 0xcc, 0x61, 0xc1, 0x60, 0x27, 0x5f, 0xbe,
  0x36, 0x85, 0x4d, 0x3e, 0x4c, 0x26, 0x33, 0x3f, 0x90, 0xe8, 0x5e, 0x3f,
  0xab, 0xe7, 0x81, 0x3d, 0x33, 0xea, 0x2e, 0x3f, 0xde, 0x36, 0x51, 0xbe,
  0xab, 0x66, 0xa3, 0x3f, 0x0d, 0x8e, 0xa9, 0xc0, 0x8b, 0x62, 0x6a, 0xc1,
  0x24, 0x6e, 0x12, 0x3e, 0xb4, 0x11, 0x43, 0xbd, 0x60, 0xdf, 0x3d, 0x3f,
  0x7d, 0xaf, 0x6c, 0x3f, 0x74, 0x63, 0xb8, 0x3d, 0x86, 0xc1, 0x35, 0x3f,
  0x1a, 0x04, 0x07, 0x3e, 0x88, 0x7a, 0xa5, 0x3f, 0x6b, 0xd0, 0xb1, 0xc0,
  0xa6, 0xd8, 0x72, 0xc1, 0x40, 0x9c, 0x98, 0x3d, 0x0a, 0x5e, 0x8d, 0xbd,
  0x68, 0x41, 0x47, 0x3f, 0x0a, 0x48, 0x7c, 0x3f, 0x8f, 0xfc, 0xc4, 0x3d,
  0x9b, 0x9e, 0x44, 0x3f, 0xb0, 0x81, 0x59, 0xbe, 0x7c, 0xd0, 0xa6, 0x3f,
  0x37, 0x02, 0xba, 0xc0, 0xb8, 0x91, 0x7b, 0xc1, 0x60, 0x8d, 0x24, 0x3e,
  0x5a, 0x8e, 0x16, 0xbe, 0x7e, 0x1a, 0x56, 0x3f, 0x67, 0xc8, 0x85, 0x3f,
  0x09, 0xed, 0x0e, 0x3e, 0xf3, 0x6b, 0x4e, 0x3f, 0x74, 0x1b, 0x2f, 0x3e,
  0xb2, 0xb6, 0xaa, 0x3f, 0xa1, 0x06, 0xc3, 0xc0, 0xc3, 0x48, 0x82, 0xc1,
  0x1c, 0xa1, 0x4e, 0x3e, 0xd0, 0x7c, 0xae, 0x3c, 0x6a, 0xe4, 0x61, 0x3f,
  0x62, 0x2c, 0x8d, 0x3f, 0x8a, 0x23, 0x20, 0x3e, 0x5b, 0x60, 0x5b, 0x3f,
  0x9d, 0x7e, 0xf9, 0xbd, 0x58, 0x4f, 0xad, 0x3f, 0xde, 0xbd, 0xcb, 0xc0,
  0x21, 0x01, 0x87, 0xc1, 0x30, 0x94, 0x71, 0xbc, 0x18, 0xc2, 0x8a, 0x3d,
  0xf3, 0x48, 0x6b, 0x3f, 0x25, 0x60, 0x95, 0x3f, 0x34, 0x60, 0x4e, 0x3e,
  0xcd, 0xbc, 0x63, 0x3f, 0x18, 0x9a, 0x96, 0x3d, 0x4b, 0xd0, 0xad, 0x3f,
  0x14, 0x2b, 0xd5, 0xc0, 0xf8, 0xdf, 0x8b, 0xc1, 0x84, 0x35, 0x64, 0xbd,
  0xb7, 0xbc, 0x6b, 0xbe, 0xcc, 0xc1, 0x75, 0x3f, 0x17, 0xec, 0x9d, 0x3f,
  0xad, 0x02, 0x5b, 0x3e, 0xad, 0x45, 0x6f, 0x3f, 0x58, 0x6d, 0x4b, 0x3e,
  0xd1, 0x70, 0xb1, 0x3f, 0xe0, 0x06, 0xde, 0xc0, 0xf8, 0xf1, 0x90, 0xc1,
  0xea, 0x2f, 0x63, 0xbe, 0xf4, 0x2d, 0xf5, 0xbd, 0xaf, 0xf1, 0x81, 0x3f,
  0x4e, 0x3e, 0xa5, 0x3f, 0xca, 0x6e, 0x6a, 0x3e, 0x5c, 0xb8, 0x80, 0x3f,
  0x04, 0xc6, 0x12, 0x3e, 0xae, 0x63, 0xb3, 0x3f, 0x39, 0x80, 0xe8, 0xc0,
  0x17, 0x23, 0x96, 0xc1, 0xe6, 0xd4, 0x17, 0x3e, 0x9c, 0xec, 0xb5, 0xbd,
  0x5d, 0x2c, 0x87, 0x3f, 0xed, 0x35, 0xad, 0x3f, 0x6c, 0x2b, 0x93, 0x3e,
  0x3f, 0x7f, 0x83, 0x3f, 0x48, 0x44, 0xb8, 0x3d, 0x99, 0x38, 0xb4, 0x3f,
  0xfa, 0x93, 0xf2, 0xc0, 0xa1, 0x8f, 0x9b, 0xc1, 0xe6, 0xa8, 0x57, 0x3e,
  0x9a, 0x9d, 0x86, 0xbd, 0xd8, 0x58, 0x8e, 0x3f, 0x0d, 0xff, 0xb6, 0x3f,
  0x11, 0x61, 0xa2, 0x3e, 0x67, 0x25, 0x8a, 0x3f, 0xfc, 0x80, 0x10, 0xbe,
  0x10, 0x93, 0xb5, 0x3f, 0x13, 0x8e, 0xfd, 0xc0, 0x0e, 0x34, 0xa1, 0xc1,
  0xd8, 0x31, 0x2e, 0xbe, 0x28, 0xb8, 0x6d, 0x3d, 0x8b, 0x93, 0x93, 0x3f,
  0x10, 0x71, 0xbf, 0x3f, 0x16, 0xce, 0xa5, 0x3e, 0xb2, 0x19, 0x90, 0x3f,
  0xf0, 0x58, 0xc2, 0x3d, 0x46, 0xe4, 0xb4, 0x3f, 0xea, 0x4b, 0x04, 0xc1,
  0x9c, 0x49, 0xa7, 0xc1, 0x00, 0x66, 0xd6, 0xbb, 0xe4, 0x9a, 0xce, 0x3d,
  0x04, 0x76, 0x9b, 0x3f, 0xd8, 0xf4, 0xc7, 0x3f, 0x47, 0xd0, 0xb5, 0x3e,
  0x37, 0x82, 0x98, 0x3f, 0xae, 0x67, 0x35, 0x3e, 0x54, 0x17, 0xb9, 0x3f,
  0xca, 0x20, 0x0a, 0xc1, 0x26, 0x7c, 0xad, 0xc1, 0x38, 0xec, 0xd2, 0xbc,
  0x0c, 0x40, 0x59, 0x3e, 0x1b, 0xb2, 0xa1, 0x3f, 0x08, 0x6c, 0xd2, 0x3f,
  0xb5, 0xb8, 0xce, 0x3e, 0xb3, 0x9e, 0x9d, 0x3f, 0x24, 0xf7, 0x83, 0x3d,
  0xad, 0xaf, 0xb8, 0x3f, 0xf8, 0x0b, 0x10, 0xc1, 0x39, 0x42, 0xb4, 0xc1,
  0xa0, 0x54, 0x9f, 0x3c, 0x51, 0xd8, 0x3e, 0xbe, 0x32, 0x4f, 0xa8, 0x3f,
  0x47, 0x1f, 0xdb, 0x3f, 0x95, 0xac, 0xdb, 0x3e, 0x2f, 0x6a, 0xa5, 0x3f,
  0x45, 0x1b, 0x1d, 0xbe, 0x38, 0xa8, 0xbb, 0x3f, 0xa9, 0x63, 0x16, 0xc1,
  0xf8, 0x2c, 0xbb, 0xc1, 0xe0, 0x3b, 0x0b, 0xbc, 0x00, 0xd6, 0xcb, 0xbb,
  0x74, 0xd9, 0xb0, 0x3f, 0x52, 0x26, 0xe5, 0x3f, 0x94, 0x71, 0xf1, 0x3e,
  0x4b, 0x28, 0xac, 0x3f, 0x00, 0x79, 0x39, 0x3e, 0x1c, 0x95, 0xbd, 0x3f,
  0xb5, 0xec, 0x1c, 0xc1, 0xfd, 0xd4, 0xc2, 0xc1, 0x60, 0x84, 0x39, 0x3d,
  0x9c, 0xc5, 0x28, 0xbe, 0x6f, 0x57, 0xb8, 0x3f, 0x1a, 0xfe, 0xee, 0x3f,
  0x38, 0x5f, 0xf3, 0x3e, 0x13, 0xe2, 0xb3, 0x3f, 0x2a, 0x4e, 0xdc, 0xbd,
  0x88, 0x14, 0xbf, 0x3f, 0xdb, 0xfd, 0x23, 0xc1, 0xa6, 0xa1, 0xca, 0xc1,
  0x1c, 0x13, 0xd2, 0x3d, 0xbc, 0xf4, 0x92, 0xbd, 0x7b, 0x79, 0xc1, 0x3f,
  0x4c, 0x27, 0xf9, 0x3f, 0xea, 0x9c, 0x0d, 0x3f, 0x12, 0x82, 0xbb, 0x3f,
  0x36, 0xe6, 0x1b, 0x3e, 0xaa, 0x8f, 0xc1, 0x3f, 0xb4, 0x44, 0x2b, 0xc1,
  0x29, 0x55, 0xd3, 0xc1, 0x58, 0x28, 0xe3, 0xbc, 0xa1, 0xef, 0xe8, 0xbd,
  0xa3, 0x63, 0xc8, 0x3f, 0x2b, 0x8a, 0x02, 0x40, 0x3e, 0x5f, 0x12, 0x3f,
  0x50, 0x85, 0xc3, 0x3f, 0xec, 0x87, 0x33, 0x3e, 0x55, 0x14, 0xc1, 0x3f,
  0x42, 0x38, 0x33, 0xc1, 0x00, 0x69, 0xdc, 0xc1, 0xe0, 0xea, 0x4d, 0x3e,
  0xfc, 0x67, 0xab, 0x3d, 0xa6, 0xe2, 0xd0, 0x3f, 0x4c, 0x0c, 0x08, 0x40,
  0x1a, 0xd6, 0x1b, 0x3f, 0x12, 0xd9, 0xcb, 0x3f, 0xe0, 0x24, 0x56, 0x3d,
  0x06, 0x1b, 0xc2, 0x3f, 0x53, 0x68, 0x3b, 0xc1, 0x65, 0x6e, 0xe6, 0xc1,
  0x10, 0x06, 0x4e, 0xbd, 0x3c, 0xa3, 0x5d, 0x3e, 0x56, 0xde, 0xda, 0x3f,
  0x52, 0x78, 0x0e, 0x40, 0xee, 0x06, 0x25, 0x3f, 0x49, 0xf4, 0xd5, 0x3f,
  0x87, 0x8d, 0x5a, 0xbe, 0xad, 0xa7, 0xc2, 0x3f, 0x32, 0x9e, 0x44, 0xc1,
  0x22, 0x0b, 0xf1, 0xc1, 0x50, 0xae, 0x74, 0xbd, 0x30, 0x3c, 0x6c, 0x3d,
  0x59, 0x80, 0xe4, 0x3f, 0xdd, 0x43, 0x14, 0x40, 0x0c, 0xac, 0x31, 0x3f,
  0xf5, 0xfc, 0xdf, 0x3f, 0x46, 0xe4, 0x60, 0xbe, 0x74, 0xf6, 0xc2, 0x3f,
  0x6b, 0x3c, 0x4e, 0xc1, 0x32, 0x16, 0xfd, 0xc1, 0x14, 0x0b, 0xd9, 0x3d,
  0xdc, 0x66, 0x2d, 0xbe, 0xc0, 0x7a, 0xee, 0x3f, 0x65, 0xef, 0x1b, 0x40,
  0x2d, 0x6d, 0x3e, 0x3f, 0xd0, 0x42, 0xea, 0x3f, 0x56, 0x56, 0x53, 0x3e,
  0x00, 0x28, 0xc3, 0x3f, 0x35, 0xa0, 0x58, 0xc1, 0xfa, 0xf6, 0x04, 0xc2,
  0x30, 0x25, 0x5d, 0x3d, 0x9d, 0x21, 0x30, 0xbe, 0xa3, 0x5d, 0xf8, 0x3f,
  0xe9, 0xe5, 0x22, 0x40, 0xf3, 0x8c, 0x49, 0x3f, 0x15, 0x0d, 0xf5, 0x3f,
  0x1c, 0x3d, 0x09, 0x3e, 0x65, 0xc2, 0xc0, 0x3f, 0xfe, 0xee, 0x63, 0xc1,
  0x15, 0x47, 0x0c, 0xc2, 0xcc, 0xea, 0x16, 0xbe, 0x10, 0x6c, 0x1e, 0x3d,
  0x39, 0xdc, 0x01, 0x40, 0x63, 0x1a, 0x2b, 0x40, 0x11, 0x99, 0x5e, 0x3f,
  0x58, 0x0c, 0x01, 0x40, 0x82, 0x7d, 0xed, 0xbd, 0xf5, 0xc4, 0xbc, 0x3f,
  0x25, 0xe3, 0x70, 0xc1, 0x7f, 0x5b, 0x14, 0xc2, 0xf8, 0x50, 0x1c, 0x3e,
  0x90, 0xec, 0x5c, 0xbd, 0x93, 0x61, 0x07, 0x40, 0x71, 0x51, 0x33, 0x40,
  0xfd, 0x7a, 0x66, 0x3f, 0xa7, 0x8d, 0x07, 0x40, 0x3e, 0x69, 0x58, 0xbe,
  0xb0, 0x4c, 0xbc, 0x3f, 0x2f, 0x4d, 0x7e, 0xc1, 0xe4, 0xbb, 0x1d, 0xc2,
  0x60, 0x15, 0x30, 0x3d, 0x4e, 0x29, 0x06, 0x3e, 0x23, 0x2f, 0x0e, 0x40,
  0x1b, 0xbc, 0x3c, 0x40, 0x5f, 0x5b, 0x76, 0x3f, 0x8f, 0x6f, 0x0f, 0x40,
  0xc4, 0x52, 0x15, 0xbd, 0x6e, 0x29, 0xb7, 0x3f, 0xfe, 0x2a, 0x87, 0xc1,
  0xc2, 0x46, 0x28, 0xc2, 0x3a, 0xde, 0x41, 0xbe, 0x09, 0xd2, 0x4f, 0xbe,
  0x58, 0x36, 0x15, 0x40, 0x93, 0x99, 0x46, 0x40, 0xd4, 0x2f, 0x87, 0x3f,
  0xe8, 0x56, 0x16, 0x40, 0x6a, 0x35, 0x3a, 0x3e, 0x2d, 0x4e, 0xb1, 0x3f,
  0xb8, 0xd5, 0x8f, 0xc1, 0xb2, 0xf9, 0x34, 0xc2, 0x7e, 0xb7, 0x03, 0xbe,
  0xdb, 0x03, 0x23, 0xbe, 0x61, 0x14, 0x1e, 0x40, 0xe4, 0x49, 0x52, 0x40,
  0x3e, 0x03, 0x8f, 0x3f, 0x36, 0x91, 0x20, 0x40, 0x7e, 0x45, 0x11, 0x3e,
  0x03, 0xa7, 0xad, 0x3f, 0x2a, 0x21, 0x9a, 0xc1, 0xdc, 0xb3, 0x43, 0xc2,
  0xa8, 0x6e, 0x88, 0xbc, 0xcd, 0x97, 0x37, 0xbe, 0xca, 0xfc, 0x26, 0x40,
  0xe4, 0xa3, 0x5e, 0x40, 0x4c, 0x9b, 0x99, 0x3f, 0xf7, 0x48, 0x2a, 0x40,
  0x2a, 0xd9, 0x5e, 0x3e, 0xc4, 0x65, 0xa7, 0x3f, 0xea, 0xc8, 0xa5, 0xc1,
  0xd7, 0x56, 0x56, 0xc2, 0xf8, 0x10, 0xa1, 0xbc, 0xac, 0x5c, 0x30, 0x3e,
  0x34, 0x62, 0x33, 0x40, 0xfc, 0x08, 0x6d, 0x40, 0x08, 0x78, 0xa6, 0x3f,
  0x2e, 0x0b, 0x36, 0x40, 0x86, 0xd2, 0x0f, 0xbe, 0xd9, 0xf8, 0x9d, 0x3f,
  0x55, 0x15, 0xb4, 0xc1, 0xbd, 0x2d, 0x6d, 0xc2, 0x00, 0x94, 0x4d, 0xb9,
  0xe6, 0x1a, 0x01, 0xbe, 0x0f, 0xd3, 0x41, 0x40, 0xd8, 0x5c, 0x7d, 0x40,
  0x46, 0x6a, 0xb4, 0x3f, 0xfd, 0xde, 0x42, 0x40, 0x00, 0x33, 0x5a, 0x3e,
  0x60, 0xa5, 0x91, 0x3f, 0x57, 0x06, 0xc5, 0xc1, 0x25, 0xac, 0x85, 0xc2,
  0xa2, 0xd7, 0x14, 0x3e, 0x80, 0xd2, 0x84, 0xbc, 0xf3, 0xae, 0x54, 0x40,
  0x89, 0xb7, 0x88, 0x40, 0x40, 0xd7, 0xc8, 0x3f, 0x29, 0x77, 0x52, 0x40,
  0x60, 0x87, 0x15, 0x3d, 0x51, 0x77, 0x80, 0x3f, 0xc5, 0xbf, 0xda, 0xc1,
  0x53, 0xb0, 0x99, 0xc2, 0x2c, 0xd6, 0xe7, 0x3d, 0x00, 0x60, 0x2d, 0x3c,
  0x67, 0x23, 0x6a, 0x40, 0xcf, 0x8c, 0x94, 0x40, 0x33, 0x7f, 0xdb, 0x3f,
  0x4f, 0x03, 0x65, 0x40, 0x30, 0x53, 0x25, 0xbc, 0x8d, 0x37, 0x4b, 0x3f,
  0xc4, 0x08, 0xf6, 0xc1, 0xde, 0xdf, 0xb4, 0xc2, 0x08, 0xff, 0x2f, 0xbe,
  0x30, 0xb4, 0x51, 0xbc, 0x1a, 0x10, 0x82, 0x40, 0xde, 0xa0, 0xa2, 0x40,
  0xb6, 0x65, 0xf2, 0x3f, 0x03, 0xad, 0x7c, 0x40, 0xfe, 0x34, 0x17, 0x3e,
  0xf7, 0xb3, 0xf4, 0x3e, 0x26, 0x51, 0x0c, 0xc2, 0xb9, 0x42, 0xdb, 0xc2,
  0xb6, 0x6a, 0x2e, 0x3e, 0x98, 0x83, 0x42, 0x3e, 0x8d, 0xe5, 0x8f, 0x40,
  0xfa, 0xe2, 0xb2, 0x40, 0x45, 0x45, 0x08, 0x40, 0xfa, 0x64, 0x8c, 0x40,
  0x6c, 0x2c, 0x1b, 0x3e, 0x4d, 0xe4, 0xb6, 0xbc, 0x85, 0x4b, 0x22, 0xc2,
  0x08, 0x9d, 0x09, 0xc3, 0x04, 0x8b, 0x5a, 0xbe, 0x7a, 0x4e, 0x18, 0xbe,
  0xa6, 0x9a, 0x9e, 0x40, 0xb9, 0xd6, 0xc4, 0x40, 0xb5, 0x91, 0x18, 0x40,
  0xdd, 0x39, 0x9e, 0x40, 0xc0, 0x83, 0x7a, 0x3d, 0x4a, 0x28, 0x43, 0xbf,
  0x4c, 0x51, 0x3d, 0xc2, 0xc9, 0x28, 0x3d, 0xc3, 0x78, 0x27, 0x53, 0x3e,
  0xf8, 0x78, 0x56, 0xbd, 0x40, 0x19, 0xb5, 0x40, 0xee, 0x62, 0xd4, 0x40,
  0x5c, 0xe5, 0x26, 0x40, 0x63, 0xb2, 0xad, 0x40, 0xf7, 0xa5, 0x55, 0xbe,
  0xb6, 0xf4, 0xe4, 0xbf, 0xc7, 0x56, 0x5b, 0xc2, 0xaa, 0xb6, 0x5a, 0xbf,
  0xea, 0xbc, 0x46, 0x3e, 0x74, 0xa0, 0x9a, 0x3d, 0xdf, 0x9e, 0x66, 0xbf,
  0x20, 0x43, 0xb5, 0xbf, 0x3b, 0x76, 0x5a, 0xbf, 0x70, 0x6b, 0x3e, 0xbf,
  0x60, 0x39, 0x36, 0x3d, 0x31, 0xe4, 0xa1, 0xbf, 0x08, 0x3d, 0x32, 0xbf,
  0x5b, 0x22, 0x0e, 0xbf, 0x6e, 0xdd, 0x5d, 0xbe, 0xf0, 0x6f, 0x31, 0x3e,
  0x28, 0xff, 0x67, 0xbf, 0xbd, 0x04, 0x83, 0xbf, 0x2a, 0x3c, 0x0c, 0xbf,
  0x8a, 0x65, 0xc1, 0xbf, 0x28, 0xfc, 0x34, 0x3d, 0x19, 0x54, 0xbb, 0xbf,
  0x61, 0x3b, 0x3d, 0xbf, 0xcf, 0xc2, 0x8d, 0xbf, 0xd6, 0x33, 0x42, 0x3e,
  0x9a, 0xf5, 0x61, 0xbe, 0xa0, 0x35, 0x87, 0xbf, 0x92, 0xa7, 0xac, 0xbf,
  0x0b, 0x90, 0x45, 0xbf, 0x7a, 0xbc, 0x2d, 0xbf, 0xd0, 0xc0, 0x95, 0x3c,
  0xd2, 0xcd, 0x94, 0xbf, 0x86, 0x81, 0x3b, 0xbf, 0xf3, 0xc5, 0x09, 0xbf,
  0x7e, 0xc5, 0x62, 0x3e, 0x80, 0xb4, 0x0b, 0xbe, 0x7f, 0x7e, 0x87, 0xbf,
  0xe5, 0xd9, 0x88, 0xbf, 0x28, 0x2c, 0xcd, 0xbe, 0x3c, 0x9f, 0x77, 0xbf,
  0xd5, 0xb3, 0xfa, 0xbd, 0x29, 0x2d, 0xd9, 0xbf, 0x42, 0xcf, 0xd7, 0xbe,
  0x1a, 0xfd, 0xff, 0xff, 0x2c, 0x00, 0x00, 0x00, 0x05, 0x00, 0x00, 0x00,
  0x08, 0x00, 0x00, 0x00, 0x2c, 0x00, 0x00, 0x00, 0x14, 0x00, 0x00, 0x00,
  0x6d, 0x6f, 0x64, 0x65, 0x6c, 0x2f, 0x64, 0x65, 0x6e, 0x73, 0x65, 0x5f,
  0x31, 0x2f, 0x4d, 0x61, 0x74, 0x4d, 0x75, 0x6c, 0x00, 0x00, 0x00, 0x00,
  0x02, 0x00, 0x00, 0x00, 0x64, 0x00, 0x00, 0x00, 0x0a, 0x00, 0x00, 0x00,
  0xac, 0xfc, 0xff, 0xff, 0xfe, 0xfe, 0xff, 0xff, 0x04, 0x00, 0x00, 0x00,
  0x50, 0x00, 0x00, 0x00, 0x40, 0xf8, 0x1e, 0xc0, 0x43, 0xd2, 0x68, 0xbd,
  0xa7, 0x63, 0xcf, 0xbe, 0x84, 0xe3, 0x20, 0xbe, 0xb4, 0xe0, 0x9c, 0xbe,
  0x55, 0x46, 0x18, 0xbf, 0x73, 0xb8, 0xd1, 0xbe, 0xe4, 0xf6, 0xee, 0xbc,
  0x0e, 0x02, 0xdf, 0x3f, 0xc4, 0x10, 0x0e, 0xbd, 0xd7, 0x76, 0xb4, 0xbe,
  0x9d, 0x46, 0xcc, 0x3d, 0x12, 0x1f, 0x01, 0xbf, 0xfd, 0x66, 0x93, 0xbd,
  0x16, 0x8a, 0x28, 0xbf, 0xa6, 0x86, 0x05, 0xbf, 0x0d, 0x5f, 0x25, 0xbe,
  0xfd, 0x09, 0xdb, 0xbc, 0x12, 0x0d, 0x90, 0x40, 0xff, 0x65, 0xd2, 0x3d,
  0xb6, 0xfd, 0xff, 0xff, 0x28, 0x00, 0x00, 0x00, 0x04, 0x00, 0x00, 0x00,
  0x08, 0x00, 0x00, 0x00, 0x28, 0x00, 0x00, 0x00, 0x12, 0x00, 0x00, 0x00,
  0x6d, 0x6f, 0x64, 0x65, 0x6c, 0x2f, 0x64, 0x65, 0x6e, 0x73, 0x65, 0x2f,
  0x4d, 0x61, 0x74, 0x4d, 0x75, 0x6c, 0x00, 0x00, 0x02, 0x00, 0x00, 0x00,
  0x0a, 0x00, 0x00, 0x00, 0x02, 0x00, 0x00, 0x00, 0x44, 0xfd, 0xff, 0xff,
  0x96, 0xff, 0xff, 0xff, 0x04, 0x00, 0x00, 0x00, 0x28, 0x00, 0x00, 0x00,
  0xea, 0x78, 0x84, 0x42, 0x00, 0x00, 0x00, 0x00, 0x00, 0x00, 0x00, 0x00,
  0xb1, 0x67, 0x84, 0x41, 0x37, 0xe5, 0xe9, 0x41, 0x64, 0x15, 0xdd, 0x40,
  0x86, 0x43, 0xbd, 0x41, 0x00, 0x00, 0x00, 0x00, 0x1e, 0xed, 0x4c, 0x41,
  0x08, 0x77, 0xec, 0xc2, 0x26, 0xfe, 0xff, 0xff, 0x20, 0x00, 0x00, 0x00,
  0x03, 0x00, 0x00, 0x00, 0x08, 0x00, 0x00, 0x00, 0x20, 0x00, 0x00, 0x00,
  0x0a, 0x00, 0x00, 0x00, 0x64, 0x65, 0x6e, 0x73, 0x65, 0x2f, 0x62, 0x69,
  0x61, 0x73, 0x00, 0x00, 0x01, 0x00, 0x00, 0x00, 0x0a, 0x00, 0x00, 0x00,
  0x04, 0x00, 0x06, 0x00, 0x04, 0x00, 0x00, 0x00, 0x00, 0x00, 0x06, 0x00,
  0x08, 0x00, 0x04, 0x00, 0x06, 0x00, 0x00, 0x00, 0x04, 0x00, 0x00, 0x00,
  0x90, 0x01, 0x00, 0x00, 0xe1, 0x81, 0x40, 0xc1, 0xae, 0x74, 0xf7, 0xc0,
  0x71, 0x26, 0xba, 0xc0, 0xd5, 0x8b, 0x97, 0xc0, 0x91, 0x3e, 0x6b, 0xc0,
  0x14, 0xf1, 0x61, 0xc0, 0x2f, 0xd0, 0x39, 0xc0, 0x90, 0x49, 0x29, 0xc0,
  0xa1, 0xc8, 0xfb, 0xbf, 0x6c, 0xc6, 0x17, 0xc0, 0xa0, 0xa9, 0xdf, 0xbf,
  0xed, 0x66, 0xd7, 0xbf, 0xc7, 0xd4, 0xc9, 0xbf, 0xf1, 0x37, 0xb0, 0xbf,
  0x9b, 0xd5, 0x8d, 0xbf, 0xb2, 0x4f, 0xba, 0xbf, 0x90, 0x13, 0x85, 0xbf,
  0x07, 0x79, 0x83, 0xbf, 0x30, 0x3b, 0x50, 0xbf, 0x29, 0xf6, 0x8f, 0xbf,
  0x87, 0x0a, 0x25, 0xbf, 0x15, 0xef, 0x06, 0xbf, 0xbc, 0x69, 0x1d, 0xbf,
  0xda, 0x1a, 0x1e, 0xbf, 0x7c, 0xef, 0x25, 0xbf, 0x68, 0x80, 0x94, 0xbe,
  0xa3, 0x41, 0x55, 0xbe, 0x79, 0xb3, 0xa0, 0xbe, 0xff, 0x35, 0xde, 0xbe,
  0x63, 0x21, 0x62, 0xbe, 0x18, 0xa4, 0xc5, 0x3d, 0x29, 0xf4, 0xca, 0xbe,
  0x24, 0xd1, 0x04, 0x3e, 0x6e, 0xea, 0x12, 0x3d, 0x48, 0x38, 0x14, 0x3e,
  0x53, 0x03, 0x63, 0x3e, 0x1a, 0x37, 0xc5, 0xbc, 0xd5, 0x73, 0x09, 0xbe,
  0x40, 0xec, 0x73, 0x3e, 0x67, 0xd8, 0x3a, 0x3e, 0x04, 0x65, 0xf5, 0x3e,
  0xe7, 0xd0, 0x10, 0xbd, 0x15, 0x03, 0x83, 0x3e, 0x7c, 0x76, 0x0a, 0x3e,
  0xc0, 0xda, 0x80, 0x3e, 0xc8, 0x32, 0xf0, 0x3e, 0xbf, 0x8d, 0xd8, 0x3e,
  0x2d, 0x85, 0xe9, 0x3e, 0x85, 0x47, 0xa0, 0x3e, 0x5a, 0xdc, 0xfe, 0x3e,
  0x23, 0x0b, 0xbe, 0x3e, 0x44, 0xf1, 0xaf, 0x3e, 0xeb, 0x26, 0x1e, 0x3f,
  0xd6, 0x2d, 0x1f, 0x3f, 0xbd, 0x88, 0x1a, 0x3f, 0x73, 0x0c, 0x6e, 0x3f,
  0x0c, 0xa0, 0x63, 0x3f, 0x82, 0xa7, 0x46, 0x3f, 0xe3, 0x8f, 0x83, 0x3f,
  0x45, 0xc1, 0x2f, 0x3f, 0xee, 0x6e, 0x8a, 0x3f, 0x40, 0x3f, 0x27, 0x3f,
  0x57, 0xd5, 0x92, 0x3f, 0xd4, 0x95, 0x85, 0x3f, 0xe7, 0xef, 0x90, 0x3f,
  0x6e, 0x54, 0x8a, 0x3f, 0xbe, 0xff, 0x92, 0x3f, 0xa6, 0x90, 0x84, 0x3f,
  0x1e, 0x01, 0x97, 0x3f, 0x81, 0x3d, 0x33, 0x3f, 0xe0, 0xc1, 0x9c, 0x3f,
  0x6e, 0x95, 0x33, 0x3f, 0xa4, 0x83, 0xa0, 0x3f, 0x8a, 0x80, 0x86, 0x3f,
  0x3d, 0x82, 0x9a, 0x3f, 0xdf, 0x6c, 0xba, 0x3f, 0xb1, 0x90, 0xa1, 0x3f,
  0x97, 0xb2, 0x9b, 0x3f, 0x60, 0xc0, 0xc9, 0x3f, 0xc5, 0x47, 0xac, 0x3f,
  0xcc, 0x50, 0xc7, 0x3f, 0xe5, 0xac, 0xb0, 0x3f, 0xa7, 0xd4, 0x9d, 0x3f,
  0xff, 0xfa, 0xab, 0x3f, 0x52, 0xfe, 0xb4, 0x3f, 0x7b, 0xed, 0x91, 0x3f,
  0xd7, 0xd8, 0xc3, 0x3f, 0x3e, 0xb6, 0x96, 0x3f, 0xaf, 0x85, 0xa7, 0x3f,
  0x72, 0x9d, 0xb0, 0x3f, 0x23, 0xce, 0x9e, 0x3f, 0x21, 0xef, 0x67, 0x3f,
  0x07, 0x7d, 0x8a, 0x3f, 0x30, 0x98, 0x29, 0x3f, 0xa9, 0x9a, 0x05, 0x3e,
  0x75, 0x08, 0x46, 0xbf, 0x1e, 0xb8, 0x6f, 0xbf, 0x81, 0x4c, 0x88, 0xbf,
  0x57, 0x10, 0x5c, 0xbf, 0x98, 0xfc, 0x9f, 0xbf, 0x00, 0x00, 0x0e, 0x00,
  0x14, 0x00, 0x04, 0x00, 0x00, 0x00, 0x08, 0x00, 0x0c, 0x00, 0x10, 0x00,
  0x0e, 0x00, 0x00, 0x00, 0x24, 0x00, 0x00, 0x00, 0x02, 0x00, 0x00, 0x00,
  0x08, 0x00, 0x00, 0x00, 0x20, 0x00, 0x00, 0x00, 0x0c, 0x00, 0x00, 0x00,
  0x64, 0x65, 0x6e, 0x73, 0x65, 0x5f, 0x31, 0x2f, 0x62, 0x69, 0x61, 0x73,
  0x00, 0x00, 0x00, 0x00, 0x01, 0x00, 0x00, 0x00, 0x64, 0x00, 0x00, 0x00,
  0x94, 0xff, 0xff, 0xff, 0x14, 0x00, 0x18, 0x00, 0x04, 0x00, 0x00, 0x00,
  0x08, 0x00, 0x0c, 0x00, 0x10, 0x00, 0x00, 0x00, 0x00, 0x00, 0x14, 0x00,
  0x14, 0x00, 0x00, 0x00, 0x40, 0x00, 0x00, 0x00, 0x01, 0x00, 0x00, 0x00,
  0x18, 0x00, 0x00, 0x00, 0x40, 0x00, 0x00, 0x00, 0x04, 0x00, 0x00, 0x00,
  0x02, 0x00, 0x00, 0x00, 0xff, 0xff, 0xff, 0xff, 0x02, 0x00, 0x00, 0x00,
  0x19, 0x00, 0x00, 0x00, 0x73, 0x65, 0x72, 0x76, 0x69, 0x6e, 0x67, 0x5f,
  0x64, 0x65, 0x66, 0x61, 0x75, 0x6c, 0x74, 0x5f, 0x69, 0x6e, 0x70, 0x75,
  0x74, 0x5f, 0x31, 0x3a, 0x30, 0x00, 0x00, 0x00, 0x02, 0x00, 0x00, 0x00,
  0x01, 0x00, 0x00, 0x00, 0x02, 0x00, 0x00, 0x00, 0xfc, 0xff, 0xff, 0xff,
  0x04, 0x00, 0x04, 0x00, 0x04, 0x00, 0x00, 0x00
};

const unsigned char comfort_model_winter[] DATA_ALIGN_ATTRIBUTE = {
  0x1c, 0x00, 0x00, 0x00, 0x54, 0x46, 0x4c, 0x33, 0x14, 0x00, 0x20, 0x00,
  0x04, 0x00, 0x08, 0x00, 0x0c, 0x00, 0x10, 0x00, 0x14, 0x00, 0x00, 0x00,
  0x18, 0x00, 0x1c, 0x00, 0x14, 0x00, 0x00, 0x00, 0x03, 0x00, 0x00, 0x00,
  0x4c, 0x00, 0x00, 0x00, 0x40, 0x00, 0x00, 0x00, 0x2c, 0x01, 0x00, 0x00,
  0x0c, 0x00, 0x00, 0x00, 0xd4, 0x00, 0x00, 0x00, 0x44, 0x00, 0x00, 0x00,
  0x0a, 0x00, 0x00, 0x00, 0x04, 0x17, 0x00, 0x00, 0x00, 0x17, 0x00, 0x00,
  0xb0, 0x14, 0x00, 0x00, 0x3c, 0x14, 0x00, 0x00, 0xa0, 0x13, 0x00, 0x00,
  0xb0, 0x03, 0x00, 0x00, 0xec, 0x16, 0x00, 0x00, 0xe8, 0x16, 0x00, 0x00,
  0xe4, 0x16, 0x00, 0x00, 0xd8, 0x00, 0x00, 0x00, 0x01, 0x00, 0x00, 0x00,
  0x10, 0x01, 0x00, 0x00, 0x02, 0x00, 0x00, 0x00, 0x10, 0x03, 0x00, 0x00,
  0xac, 0x01, 0x00, 0x00, 0x01, 0x00, 0x00, 0x00, 0x10, 0x00, 0x00, 0x00,
  0x0c, 0x00, 0x14, 0x00, 0x10, 0x00, 0x0c, 0x00, 0x08, 0x00, 0x04, 0x00,
  0x0c, 0x00, 0x00, 0x00, 0x10, 0x00, 0x00, 0x00, 0x18, 0x00, 0x00, 0x00,
  0x28, 0x00, 0x00, 0x00, 0x2c, 0x00, 0x00, 0x00, 0x05, 0x00, 0x00, 0x00,
  0x73, 0x65, 0x72, 0x76, 0x65, 0x00, 0x00, 0x00, 0x0f, 0x00, 0x00, 0x00,
  0x73, 0x65, 0x72, 0x76, 0x69, 0x6e, 0x67, 0x5f, 0x64, 0x65, 0x66, 0x61,
  0x75, 0x6c, 0x74, 0x00, 0x01, 0x00, 0x00, 0x00, 0x14, 0x00, 0x00, 0x00,
  0x01, 0x00, 0x00, 0x00, 0x24, 0x00, 0x00, 0x00, 0x08, 0x00, 0x0c, 0x00,
  0x08, 0x00, 0x04, 0x00, 0x08, 0x00, 0x00, 0x00, 0x07, 0x00, 0x00, 0x00,
  0x04, 0x00, 0x00, 0x00, 0x07, 0x00, 0x00, 0x00, 0x64, 0x65, 0x6e, 0x73,
  0x65, 0x5f, 0x31, 0x00, 0x02, 0xec, 0xff, 0xff, 0x04, 0x00, 0x00, 0x00,
  0x07, 0x00, 0x00, 0x00, 0x69, 0x6e, 0x70, 0x75, 0x74, 0x5f, 0x31, 0x00,
  0x01, 0x00, 0x00, 0x00, 0x0c, 0x00, 0x00, 0x00, 0x08, 0x00, 0x0c, 0x00,
  0x04, 0x00, 0x08, 0x00, 0x08, 0x00, 0x00, 0x00, 0x08, 0x00, 0x00, 0x00,
  0x09, 0x00, 0x00, 0x00, 0x13, 0x00, 0x00, 0x00, 0x6d, 0x69, 0x6e, 0x5f,
  0x72, 0x75, 0x6e, 0x74, 0x69, 0x6d, 0x65, 0x5f, 0x76, 0x65, 0x72, 0x73,
  0x69, 0x6f, 0x6e, 0x00, 0x4a, 0xec, 0xff, 0xff, 0x04, 0x00, 0x00, 0x00,
  0x10, 0x00, 0x00, 0x00, 0x31, 0x2e, 0x35, 0x2e, 0x30, 0x00, 0x00, 0x00,
  0x00, 0x00, 0x00, 0x00, 0x00, 0x00, 0x00, 0x00, 0x0f, 0x00, 0x00, 0x00,
  0x4d, 0x4c, 0x49, 0x52, 0x20, 0x43, 0x6f, 0x6e, 0x76, 0x65, 0x72, 0x74,
  0x65, 0x64, 0x2e, 0x00, 0x00, 0x00, 0x0e, 0x00, 0x18, 0x00, 0x04, 0x00,
  0x08, 0x00, 0x0c, 0x00, 0x10, 0x00, 0x14, 0x00, 0x0e, 0x00, 0x00, 0x00,
  0x40, 0x00, 0x00, 0x00, 0x34, 0x00, 0x00, 0x00, 0x28, 0x00, 0x00, 0x00,
  0x14, 0x00, 0x00, 0x00, 0x04, 0x00, 0x00, 0x00, 0x04, 0x00, 0x00, 0x00,
  0x6d, 0x61, 0x69, 0x6e, 0x00, 0x00, 0x00, 0x00, 0x03, 0x00, 0x00, 0x00,
  0x98, 0x01, 0x00, 0x00, 0xf0, 0x00, 0x00, 0x00, 0x48, 0x00, 0x00, 0x00,
  0x01, 0x00, 0x00, 0x00, 0x07, 0x00, 0x00, 0x00, 0x01, 0x00, 0x00, 0x00,
  0x00, 0x00, 0x00, 0x00, 0x08, 0x00, 0x00, 0x00, 0x28, 0x15, 0x00, 0x00,
  0xdc, 0x14, 0x00, 0x00, 0xf0, 0x12, 0x00, 0x00, 0x7c, 0x12, 0x00, 0x00,
  0xdc, 0x11, 0x00, 0x00, 0xbc, 0x01, 0x00, 0x00, 0xec, 0x00, 0x00, 0x00,
  0x54, 0x00, 0x00, 0x00, 0x00, 0x00, 0x0e, 0x00, 0x18, 0x00, 0x08, 0x00,
  0x0c, 0x00, 0x10, 0x00, 0x07, 0x00, 0x14, 0x00, 0x0e, 0x00, 0x00, 0x00,
  0x00, 0x00, 0x00, 0x09, 0x01, 0x00, 0x00, 0x00, 0x1c, 0x00, 0x00, 0x00,
  0x10, 0x00, 0x00, 0x00, 0x04, 0x00, 0x00, 0x00, 0x1a, 0xed, 0xff, 0xff,
  0x00, 0x00, 0x80, 0x3f, 0x01, 0x00, 0x00, 0x00, 0x07, 0x00, 0x00, 0x00,
  0x01, 0x00, 0x00, 0x00, 0x06, 0x00, 0x00, 0x00, 0xac, 0xfe, 0xff, 0xff,
  0x19, 0x00, 0x00, 0x00, 0x00, 0x00, 0x00, 0x19, 0x01, 0x00, 0x00, 0x00,
  0x5c, 0xeb, 0xff, 0xff, 0x40, 0x00, 0x00, 0x00, 0x08, 0x00, 0x00, 0x00,
  0x18, 0x00, 0x00, 0x00, 0x40, 0x00, 0x00, 0x00, 0x04, 0x00, 0x00, 0x00,
  0x02, 0x00, 0x00, 0x00, 0xff, 0xff, 0xff, 0xff, 0x64, 0x00, 0x00, 0x00,
  0x19, 0x00, 0x00, 0x00, 0x53, 0x74, 0x61, 0x74, 0x65, 0x66, 0x75, 0x6c,
  0x50, 0x61, 0x72, 0x74, 0x69, 0x74, 0x69, 0x6f, 0x6e, 0x65, 0x64, 0x43,
  0x61, 0x6c, 0x6c, 0x3a, 0x30, 0x00, 0x00, 0x00, 0x02, 0x00, 0x00, 0x00,
  0x01, 0x00, 0x00, 0x00, 0x64, 0x00, 0x00, 0x00, 0x9c, 0xed, 0xff, 0xff,
  0x00, 0x00, 0x0e, 0x00, 0x14, 0x00, 0x00, 0x00, 0x08, 0x00, 0x0c, 0x00,
  0x07, 0x00, 0x10, 0x00, 0x0e, 0x00, 0x00, 0x00, 0x00, 0x00, 0x00, 0x08,
  0x18, 0x00, 0x00, 0x00, 0x0c, 0x00, 0x00, 0x00, 0x04, 0x00, 0x00, 0x00,
  0x6c, 0xeb, 0xff, 0xff, 0x01, 0x00, 0x00, 0x00, 0x06, 0x00, 0x00, 0x00,
  0x03, 0x00, 0x00, 0x00, 0x05, 0x00, 0x00, 0x00, 0x04, 0x00, 0x00, 0x00,
  0x01, 0x00, 0x00, 0x00, 0xf0, 0xeb, 0xff, 0xff, 0x50, 0x00, 0x00, 0x00,
  0x07, 0x00, 0x00, 0x00, 0x18, 0x00, 0x00, 0x00, 0x50, 0x00, 0x00, 0x00,
  0x04, 0x00, 0x00, 0x00, 0x02, 0x00, 0x00, 0x00, 0xff, 0xff, 0xff, 0xff,
  0x64, 0x00, 0x00, 0x00, 0x2a, 0x00, 0x00, 0x00, 0x6d, 0x6f, 0x64, 0x65,
  0x6c, 0x2f, 0x64, 0x65, 0x6e, 0x73, 0x65, 0x5f, 0x31, 0x2f, 0x4d, 0x61,
  0x74, 0x4d, 0x75, 0x6c, 0x3b, 0x6d, 0x6f, 0x64, 0x65, 0x6c, 0x2f, 0x64,
  0x65, 0x6e, 0x73, 0x65, 0x5f, 0x31, 0x2f, 0x42, 0x69, 0x61, 0x73, 0x41,
  0x64, 0x64, 0x00, 0x00, 0x02, 0x00, 0x00, 0x00, 0x01, 0x00, 0x00, 0x00,
  0x64, 0x00, 0x00, 0x00, 0x40, 0xee, 0xff, 0xff, 0x00, 0x00, 0x0e, 0x00,
  0x16, 0x00, 0x00, 0x00, 0x08, 0x00, 0x0c, 0x00, 0x07, 0x00, 0x10, 0x00,
  0x0e, 0x00, 0x00, 0x00, 0x00, 0x00, 0x00, 0x08, 0x24, 0x00, 0x00, 0x00,
  0x18, 0x00, 0x00, 0x00, 0x0c, 0x00, 0x00, 0x00, 0x00, 0x00, 0x06, 0x00,
  0x08, 0x00, 0x07, 0x00, 0x06, 0x00, 0x00, 0x00, 0x00, 0x00, 0x00, 0x01,
  0x01, 0x00, 0x00, 0x00, 0x05, 0x00, 0x00, 0x00, 0x03, 0x00, 0x00, 0x00,
  0x00, 0x00, 0x00, 0x00, 0x03, 0x00, 0x00, 0x00, 0x02, 0x00, 0x00, 0x00,
  0x0c, 0x00, 0x10, 0x00, 0x0b, 0x00, 0x00, 0x00, 0x0c, 0x00, 0x04, 0x00,
  0x0c, 0x00, 0x00, 0x00, 0x09, 0x00, 0x00, 0x00, 0x00, 0x00, 0x00, 0x09,
  0x01, 0x00, 0x00, 0x00, 0xbc, 0xec, 0xff, 0xff, 0x5c, 0x00, 0x00, 0x00,
  0x06, 0x00, 0x00, 0x00, 0x18, 0x00, 0x00, 0x00, 0x5c, 0x00, 0x00, 0x00,
  0x04, 0x00, 0x00, 0x00, 0x02, 0x00, 0x00, 0x00, 0xff, 0xff, 0xff, 0xff,
  0x0a, 0x00, 0x00, 0x00, 0x37, 0x00, 0x00, 0x00, 0x6d, 0x6f, 0x64, 0x65,
  0x6c, 0x2f, 0x64, 0x65, 0x6e, 0x73, 0x65, 0x2f, 0x4d, 0x61, 0x74, 0x4d,
  0x75, 0x6c, 0x3b, 0x6d, 0x6f, 0x64, 0x65, 0x6c, 0x2f, 0x64, 0x65, 0x6e,
  0x73, 0x65, 0x2f, 0x42, 0x69, 0x61, 0x73, 0x41, 0x64, 0x64, 0x3b, 0x6d,
  0x6f, 0x64, 0x65, 0x6c, 0x2f, 0x64, 0x65, 0x6e, 0x73, 0x65, 0x2f, 0x52,
  0x65, 0x6c, 0x75, 0x00, 0x02, 0x00, 0x00, 0x00, 0x01, 0x00, 0x00, 0x00,
  0x0a, 0x00, 0x00, 0x00, 0xc0, 0xec, 0xff, 0xff, 0x12, 0xef, 0xff, 0xff,
  0x04, 0x00, 0x00, 0x00, 0xa0, 0x0f, 0x00, 0x00, 0x0f, 0x29, 0xc9, 0xc0,
  0x0c, 0xb5, 0xc3, 0x3d, 0xbb, 0x86, 0x9c, 0x41, 0x3f, 0xbd, 0xb1, 0x41,
  0xcb, 0xe9, 0x95, 0xc0, 0x9f, 0x29, 0x6d, 0xbe, 0x33, 0x65, 0x3a, 0x41,
  0x06, 0xcc, 0xda, 0xc0, 0xc4, 0x7a, 0x21, 0xbe, 0x2a, 0x0f, 0x39, 0x41,
  0x92, 0x87, 0x9f, 0xc0, 0x38, 0x87, 0xf5, 0x3d, 0xa3, 0xc3, 0x81, 0x41,
  0x93, 0x1b, 0x8a, 0x41, 0xa3, 0x58, 0x88, 0xc0, 0x8c, 0xce, 0x53, 0x3e,
  0x63, 0x32, 0x3d, 0x41, 0xc6, 0x18, 0xa7, 0xc0, 0x08, 0x2a, 0x1e, 0xbe,
  0xe9, 0x7a, 0x10, 0x41, 0x02, 0xf4, 0x82, 0xc0, 0x70, 0x90, 0x54, 0x3e,
  0xb4, 0x3a, 0x59, 0x41, 0x0b, 0x43, 0x5d, 0x41, 0xa4, 0x0f, 0x77, 0xc0,
  0x70, 0x9c, 0xb3, 0x3c, 0xce, 0xd8, 0x36, 0x41, 0x46, 0x7a, 0x83, 0xc0,
  0x62, 0xdf, 0x4d, 0x3c, 0x47, 0xbb, 0xec, 0x40, 0x68, 0x08, 0x5b, 0xc0,
  0xb0, 0x19, 0xd6, 0x3c, 0x29, 0xea, 0x39, 0x41, 0x13, 0x87, 0x36, 0x41,
  0x02, 0x15, 0x5e, 0xc0, 0x94, 0xa7, 0xeb, 0xbd, 0xb9, 0x32, 0x2b, 0x41,
  0x64, 0x04, 0x55, 0xc0, 0x21, 0x18, 0x6d, 0xbe, 0x69, 0xba, 0xc2, 0x40,
  0x42, 0x47, 0x3a, 0xc0, 0x38, 0x42, 0x92, 0x3d, 0xd9, 0xc7, 0x23, 0x41,
  0x7f, 0xe4, 0x1b, 0x41, 0x5c, 0x16, 0x46, 0xc0, 0xf4, 0x64, 0xb2, 0x3d,
  0x2f, 0x18, 0x1d, 0x41, 0x70, 0xb4, 0x33, 0xc0, 0x13, 0x06, 0x26, 0xbe,
  0x42, 0x47, 0x9e, 0x40, 0x2d, 0xd5, 0x21, 0xc0, 0x7b, 0x22, 0x48, 0xbe,
  0x3c, 0x23, 0x12, 0x41, 0x73, 0xbc, 0x07, 0x41, 0x9f, 0x55, 0x30, 0xc0,
  0x6c, 0xf7, 0x3e, 0xbe, 0x0d, 0x1b, 0x11, 0x41, 0x3c, 0x3e, 0x1a, 0xc0,
  0xb5, 0x48, 0x17, 0x3e, 0x73, 0x1e, 0x84, 0x40, 0x84, 0xd7, 0x0e, 0xc0,
  0xeb, 0x3e, 0x15, 0xbe, 0xe3, 0x53, 0x04, 0x41, 0xb2, 0xa2, 0xf1, 0x40,
  0xe7, 0xc3, 0x1e, 0xc0, 0xc8, 0xdb, 0x2e, 0x3d, 0xe4, 0x86, 0x06, 0x41,
  0x0b, 0x3f, 0x09, 0xc0, 0xf4, 0x0c, 0x26, 0x3e, 0x2d, 0x62, 0x5f, 0x40,
  0x3a, 0xbf, 0xfe, 0xbf, 0x3d, 0x35, 0x41, 0xbe, 0x69, 0xe7, 0xf0, 0x40,
  0x28, 0x28, 0xd8, 0x40, 0x16, 0xc9, 0x0e, 0xc0, 0x4e, 0x5f, 0x44, 0xbe,
  0x82, 0x8a, 0xfa, 0x40, 0x67, 0x60, 0xf2, 0xbf, 0x9d, 0x76, 0x0a, 0x3e,
  0x61, 0x10, 0x3f, 0x40, 0x27, 0x93, 0xe5, 0xbf, 0xac, 0xa9, 0xf3, 0x3d,
  0x4d, 0x30, 0xdd, 0x40, 0x5b, 0x09, 0xc4, 0x40, 0xd0, 0x34, 0x01, 0xc0,
  0x94, 0xd7, 0x05, 0x3e, 0xa5, 0x6f, 0xea, 0x40, 0x30, 0xcb, 0xdb, 0xbf,
  0x2c, 0x44, 0xa0, 0xbd, 0x5f, 0x49, 0x24, 0x40, 0x77, 0x82, 0xcf, 0xbf,
  0xfc, 0xb8, 0xdd, 0xbd, 0x7b, 0x83, 0xcb, 0x40, 0x5d, 0x8b, 0xb1, 0x40,
  0x6b, 0xf5, 0xeb, 0xbf, 0x20, 0xac, 0x22, 0x3d, 0x24, 0x88, 0xdb, 0x40,
  0xae, 0x02, 0xca, 0xbf, 0xbb, 0xff, 0x52, 0x3c, 0x7f, 0x97, 0x0d, 0x40,
  0x9f, 0x2e, 0xbd, 0xbf, 0xdc, 0x1f, 0x87, 0xbd, 0x59, 0x7c, 0xbc, 0x40,
  0x01, 0x39, 0xa2, 0x40, 0x24, 0xb5, 0xd7, 0xbf, 0x7c, 0xbc, 0x62, 0xbe,
  0xac, 0x48, 0xce, 0x40, 0x4c, 0x7b, 0xb6, 0xbf, 0xc8, 0x1f, 0xb5, 0xbd,
  0x5a, 0x10, 0xf2, 0x3f, 0x58, 0x56, 0xac, 0xbf, 0x40, 0x65, 0xfc, 0x3d,
  0x58, 0x8c, 0xae, 0x40, 0xd7, 0xb7, 0x93, 0x40, 0x68, 0x4d, 0xc5, 0xbf,
  0xec, 0xff, 0x84, 0xbd, 0x1e, 0x66, 0xc1, 0x40, 0x8e, 0x29, 0xa8, 0xbf,
  0x42, 0x38, 0x22, 0x3e, 0xb6, 0x10, 0xcf, 0x3f, 0x72, 0x10, 0x9d, 0xbf,
  0x88, 0xa3, 0xa1, 0xbc, 0xef, 0x37, 0xa2, 0x40, 0x46, 0x3c, 0x87, 0x40,
  0x38, 0x64, 0xb5, 0xbf, 0xcc, 0x65, 0x05, 0x3e, 0x0c, 0xd9, 0xb5, 0x40,
  0xf6, 0xf7, 0x9a, 0xbf, 0xc1, 0xf9, 0x17, 0x3e, 0x09, 0xc7, 0xad, 0x3f,
  0xb6, 0xe1, 0x8e, 0xbf, 0x38, 0xf6, 0x54, 0x3d, 0x31, 0xb7, 0x96, 0x40,
  0xf2, 0xca, 0x76, 0x40, 0x00, 0x0c, 0xa6, 0xbf, 0x0b, 0x8b, 0x0e, 0xbe,
  0xb3, 0xad, 0xaa, 0x40, 0x41, 0x2c, 0x8e, 0xbf, 0x93, 0xd8, 0x08, 0xbd,
  0x0c, 0x92, 0x90, 0x3f, 0x82, 0x78, 0x82, 0xbf, 0x10, 0x4b, 0x88, 0x3c,
  0xb7, 0x6e, 0x8c, 0x40, 0xe4, 0x86, 0x60, 0x40, 0x24, 0xd0, 0x99, 0xbf,
  0x3b, 0xf6, 0x56, 0xbe, 0x26, 0x5a, 0xa0, 0x40, 0xe1, 0xb0, 0x84, 0xbf,
  0x8d, 0xdc, 0x6a, 0xbe, 0x61, 0x81, 0x69, 0x3f, 0x26, 0xeb, 0x6d, 0xbf,
  0xa0, 0x31, 0xcb, 0x3b, 0x2e, 0x61, 0x82, 0x40, 0x27, 0xd5, 0x4b, 0x40,
  0x6f, 0x07, 0x8c, 0xbf, 0x24, 0xb9, 0x36, 0xbd, 0xe0, 0x16, 0x96, 0x40,
  0xc3, 0xa7, 0x73, 0xbf, 0xfc, 0xa4, 0x61, 0xbe, 0x48, 0x0b, 0x34, 0x3f,
  0x86, 0x8a, 0x56, 0xbf, 0x9b, 0x78, 0xe5, 0xbd, 0x92, 0xac, 0x72, 0x40,
  0x01, 0x84, 0x39, 0x40, 0xd8, 0xd4, 0x82, 0xbf, 0xe8, 0xdd, 0x90, 0xbd,
  0xbc, 0x2e, 0x8d, 0x40, 0x39, 0x2b, 0x63, 0xbf, 0x12, 0x72, 0x43, 0xbe,
  0x08, 0xda, 0x01, 0x3f, 0x21, 0x61, 0x41, 0xbf, 0x94, 0xa1, 0x63, 0xbe,
  0x36, 0x91, 0x61, 0x40, 0x4d, 0x90, 0x26, 0x40, 0xd5, 0x70, 0x6f, 0xbf,
  0x60, 0x0d, 0xfb, 0x3c, 0x13, 0xaf, 0x83, 0x40, 0x24, 0x5b, 0x50, 0xbf,
  0x5e, 0x6e, 0x36, 0x3d, 0x52, 0x35, 0xa7, 0x3e, 0xad, 0xb7, 0x2e, 0xbf,
  0x12, 0xf0, 0x59, 0x3e, 0x83, 0x41, 0x52, 0x40, 0x9a, 0x68, 0x14, 0x40,
  0xbf, 0x1a, 0x5c, 0xbf, 0x96, 0x18, 0x11, 0x3e, 0x98, 0x09, 0x75, 0x40,
  0x6c, 0x8d, 0x3f, 0xbf, 0x31, 0xf3, 0x0f, 0xbe, 0xc7, 0x5f, 0x16, 0x3e,
  0xba, 0x04, 0x1b, 0xbf, 0x21, 0x8e, 0x50, 0xbe, 0x72, 0xb4, 0x42, 0x40,
  0xd8, 0x2b, 0x04, 0x40, 0x74, 0x47, 0x48, 0xbf, 0x10, 0x97, 0x10, 0x3d,
  0xcd, 0xcf, 0x63, 0x40, 0x1a, 0x9d, 0x35, 0xbf, 0x73, 0x27, 0x2d, 0xbe,
  0xb2, 0x25, 0xef, 0xbc, 0xdc, 0xd0, 0x08, 0xbf, 0xf0, 0x4d, 0x45, 0xbe,
  0xd3, 0x7a, 0x34, 0x40, 0x1c, 0x97, 0xe8, 0x3f, 0x4e, 0xec, 0x36, 0xbf,
  0x30, 0xac, 0x84, 0xbc, 0xb1, 0x4c, 0x53, 0x40, 0x6e, 0x59, 0x27, 0xbf,
  0x72, 0x57, 0x6a, 0xbd, 0x48, 0xbf, 0x4d, 0xbe, 0xb1, 0xae, 0xf1, 0xbe,
  0xa2, 0xa4, 0x5e, 0x3e, 0xed, 0xd3, 0x26, 0x40, 0x35, 0x76, 0xc7, 0x3f,
  0xdd, 0xa7, 0x27, 0xbf, 0xa0, 0x53, 0x52, 0x3e, 0x91, 0xa2, 0x41, 0x40,
  0x45, 0x7d, 0x1b, 0xbf, 0xc8, 0x37, 0x9c, 0xbe, 0x27, 0x33, 0xbb, 0xbe,
  0xef, 0x21, 0xcf, 0xbe, 0x5a, 0x86, 0x41, 0x3e, 0xcc, 0x49, 0x1a, 0x40,
  0xfd, 0x37, 0xaa, 0x3f, 0x73, 0xe2, 0x16, 0xbf, 0x10, 0xe1, 0x21, 0xbc,
  0x4d, 0xc0, 0x31, 0x40, 0xdd, 0x9f, 0x0e, 0xbf, 0x0b, 0x47, 0x49, 0xbe,
  0xef, 0x69, 0x09, 0xbf, 0x94, 0xae, 0xaf, 0xbe, 0xe8, 0x41, 0x2c, 0x3e,
  0x91, 0x04, 0x0e, 0x40, 0x55, 0x36, 0x8c, 0x3f, 0x6f, 0xcb, 0x07, 0xbf,
  0xcc, 0x60, 0xb1, 0x3d, 0xf7, 0x14, 0x20, 0x40, 0x88, 0x2a, 0x05, 0xbf,
  0x14, 0xbe, 0x16, 0xbd, 0x5f, 0x51, 0x31, 0xbf, 0x1d, 0x00, 0x90, 0xbe,
  0x71, 0x1c, 0xe1, 0xbd, 0xce, 0x65, 0x02, 0x40, 0xf0, 0x76, 0x5d, 0x3f,
  0x6b, 0x4d, 0xec, 0xbe, 0xd0, 0xfd, 0xde, 0x3d, 0x93, 0x9b, 0x10, 0x40,
  0x8f, 0x39, 0xf7, 0xbe, 0x64, 0x0b, 0x15, 0xbe, 0x7a, 0x88, 0x5c, 0xbf,
  0xe5, 0x19, 0x62, 0xbe, 0x40, 0xef, 0xaf, 0xbc, 0x02, 0xb5, 0xee, 0x3f,
  0xb7, 0xb1, 0x25, 0x3f, 0x9b, 0xa8, 0xcf, 0xbe, 0x68, 0x62, 0x31, 0xbe,
  0x6b, 0xe1, 0x00, 0x40, 0xb1, 0x96, 0xe0, 0xbe, 0x28, 0x33, 0xb7, 0xbd,
  0xd3, 0xd9, 0x82, 0xbf, 0x50, 0x4f, 0x26, 0xbe, 0xdc, 0xe2, 0x08, 0xbe,
  0x7f, 0x5a, 0xdb, 0x3f, 0xc6, 0xcd, 0xd5, 0x3e, 0x58, 0x87, 0xb1, 0xbe,
  0x6e, 0xd3, 0x34, 0x3e, 0xf6, 0xe2, 0xdf, 0x3f, 0x92, 0xa9, 0xd6, 0xbe,
  0xeb, 0xd9, 0xbc, 0xbd, 0x4d, 0x93, 0x97, 0xbf, 0x8d, 0x38, 0xda, 0xbd,
  0x0c, 0x00, 0xc9, 0x3d, 0xf3, 0x3a, 0xc7, 0x3f, 0x61, 0xc0, 0x59, 0x3e,
  0x32, 0x5f, 0x95, 0xbe, 0x96, 0x5f, 0x8b, 0xbd, 0x97, 0xb4, 0xbe, 0x3f,
  0x99, 0x96, 0xc3, 0xbe, 0x7a, 0x06, 0x63, 0xbe, 0x8e, 0x69, 0xac, 0xbf,
  0x9c, 0x24, 0x47, 0xbd, 0x90, 0x95, 0x6e, 0xbd, 0xe9, 0xc2, 0xb4, 0x3f,
  0x78, 0x49, 0x24, 0x3c, 0x0e, 0xf0, 0x78, 0xbe, 0xfa, 0xa5, 0x57, 0x3e,
  0xa0, 0x4a, 0x9e, 0x3f, 0x0c, 0x0a, 0xae, 0xbe, 0xb3, 0xb7, 0x0d, 0x3e,
  0xc3, 0x9e, 0xc2, 0xbf, 0x65, 0xbd, 0xda, 0x3b, 0xbe, 0x8d, 0x62, 0xbe,
  0x11, 0x3f, 0xa3, 0x3f, 0xf8, 0x10, 0x54, 0xbe, 0xb9, 0x2a, 0x49, 0xbe,
  0x70, 0xa7, 0xc4, 0x3d, 0xb0, 0xc9, 0x78, 0x3f, 0x95, 0x99, 0x96, 0xbe,
  0xcf, 0x26, 0x50, 0x3e, 0x90, 0x52, 0xd7, 0xbf, 0xdb, 0xdd, 0x68, 0x3d,
  0x00, 0x17, 0xea, 0xba, 0xee, 0x70, 0x93, 0x3f, 0xd0, 0x41, 0xd2, 0xbe,
  0x95, 0xc2, 0x15, 0xbe, 0x90, 0x6f, 0xad, 0x3c, 0xbf, 0x39, 0x33, 0x3f,
  0xbb, 0xfb, 0x9a, 0xbe, 0x32, 0xbd, 0xb2, 0xbd, 0xed, 0x70, 0xee, 0xbf,
  0xf5, 0xc0, 0xe0, 0x3d, 0x4a, 0xd0, 0x62, 0x3e, 0xf6, 0x43, 0x83, 0x3f,
  0x99, 0xdf, 0x1c, 0xbf, 0x74, 0xdb, 0xcc, 0xbd, 0x4a, 0xcb, 0x2b, 0x3e,
  0x9f, 0xdc, 0xdf, 0x3e, 0x99, 0x17, 0x83, 0xbe, 0x43, 0x96, 0x7a, 0x3d,
  0xfd, 0x52, 0x02, 0xc0, 0x82, 0xba, 0x2b, 0x3e, 0xa8, 0x96, 0x3f, 0x3d,
  0x02, 0x0e, 0x6a, 0x3f, 0xe2, 0x9a, 0x4e, 0xbf, 0x12, 0x43, 0x2b, 0xbd,
  0xa5, 0x51, 0x43, 0xbe, 0xc2, 0xf3, 0x29, 0x3e, 0xfa, 0xac, 0x86, 0xbe,
  0x3f, 0x4a, 0x89, 0xba, 0x12, 0x63, 0x0e, 0xc0, 0x8c, 0x27, 0x61, 0x3e,
  0x48, 0x59, 0x8e, 0xbd, 0x00, 0x84, 0x50, 0x3f, 0x96, 0x64, 0x81, 0xbf,
  0xf0, 0x90, 0x1c, 0xbb, 0x2c, 0x48, 0x1b, 0x3e, 0xc9, 0xb7, 0x01, 0xbe,
  0x36, 0xe3, 0x5d, 0xbe, 0x32, 0x77, 0xbb, 0x3d, 0xbf, 0xe0, 0x19, 0xc0,
  0xf5, 0xd9, 0x89, 0x3e, 0xc8, 0x79, 0x3c, 0x3d, 0xd4, 0xfc, 0x38, 0x3f,
  0x84, 0x55, 0x9b, 0xbf, 0xe9, 0x81, 0x1b, 0x3d, 0x6e, 0x9f, 0xf4, 0xbd,
  0x81, 0xc9, 0xd1, 0xbe, 0x7f, 0xa8, 0x46, 0xbe, 0xa7, 0x3f, 0x82, 0xbe,
  0x69, 0x39, 0x27, 0xc0, 0xda, 0x6a, 0xa7, 0x3e, 0xf8, 0x5c, 0xc1, 0xbd,
  0xba, 0x71, 0x1f, 0x3f, 0x67, 0x50, 0xb2, 0xbf, 0x81, 0xb4, 0xa3, 0x3d,
  0x74, 0x02, 0x9e, 0xbd, 0xb8, 0x9e, 0x34, 0xbf, 0xe5, 0x55, 0x46, 0xbe,
  0x33, 0x2d, 0x87, 0xbe, 0xe3, 0xcd, 0x33, 0xc0, 0xf6, 0x39, 0xc3, 0x3e,
  0xa4, 0x03, 0xfe, 0x3d, 0xc4, 0xcf, 0x0d, 0x3f, 0x6d, 0xd2, 0xca, 0xbf,
  0x66, 0xbe, 0x04, 0x3e, 0xe4, 0x57, 0x4b, 0x3e, 0x80, 0x20, 0x82, 0xbf,
  0x09, 0x0f, 0x2f, 0xbe, 0x8a, 0xd3, 0xcf, 0xbb, 0x81, 0xc2, 0x41, 0xc0,
  0x49, 0x26, 0xdf, 0x3e, 0x9c, 0x42, 0x23, 0x3e, 0xe9, 0x1c, 0xf7, 0x3e,
  0x78, 0x45, 0xe4, 0xbf, 0xde, 0x15, 0x31, 0x3e, 0xda, 0x2e, 0x01, 0xbe,
  0xac, 0xd1, 0xab, 0xbf, 0xeb, 0x39, 0x26, 0xbe, 0xe9, 0x12, 0x30, 0x3d,
  0xee, 0x24, 0x4f, 0xc0, 0x24, 0x18, 0xfd, 0x3e, 0x10, 0x9b, 0xf2, 0xbc,
  0xa5, 0x53, 0xdb, 0x3e, 0xd8, 0x0b, 0xfc, 0xbf, 0xf5, 0xbf, 0x4c, 0x3e,
  0xdc, 0xfa, 0x5b, 0xbe, 0x31, 0xc3, 0xd7, 0xbf, 0xe1, 0x56, 0x22, 0xbe,
  0x47, 0x14, 0x5b, 0xbe, 0x87, 0x85, 0x5e, 0xc0, 0xd4, 0xa2, 0x0c, 0x3f,
  0x30, 0xce, 0x7e, 0xbc, 0x6d, 0x7d, 0xbf, 0x3e, 0x12, 0x01, 0x0a, 0xc0,
  0x10, 0x78, 0x7d, 0x3e, 0xae, 0x9b, 0x23, 0x3e, 0xf8, 0xde, 0x01, 0xc0,
  0x44, 0xe4, 0x18, 0xbe, 0xa4, 0x5f, 0x09, 0x3e, 0x17, 0xbc, 0x6d, 0xc0,
  0x1f, 0x4e, 0x1c, 0x3f, 0x00, 0x22, 0x31, 0xba, 0xdb, 0xb5, 0xb7, 0x3e,
  0xec, 0xa3, 0x15, 0xc0, 0xc0, 0xd5, 0x8f, 0x3e, 0xa1, 0xf6, 0x26, 0xbe,
  0xba, 0x3f, 0x1b, 0xc0, 0xf3, 0x83, 0x1f, 0xbe, 0xeb, 0x64, 0x3e, 0xbe,
  0xe6, 0x3e, 0x7f, 0xc0, 0x22, 0x38, 0x2b, 0x3f, 0xf8, 0x84, 0x49, 0x3e,
  0xf6, 0xf1, 0xb4, 0x3e, 0x25, 0x16, 0x22, 0xc0, 0x53, 0xdc, 0x9f, 0x3e,
  0x98, 0x71, 0x27, 0xbd, 0x11, 0xe6, 0x34, 0xc0, 0xb3, 0xdc, 0x05, 0xbe,
  0xde, 0x88, 0x20, 0xbe, 0x21, 0x46, 0x88, 0xc0, 0xfd, 0x22, 0x3b, 0x3f,
  0x06, 0xd2, 0x1b, 0x3e, 0x98, 0x38, 0xb4, 0x3e, 0x80, 0x46, 0x2e, 0xc0,
  0x7d, 0x8d, 0xb2, 0x3e, 0x87, 0x5e, 0xfb, 0xbd, 0x52, 0x4d, 0x4e, 0xc0,
  0x24, 0xd9, 0x15, 0xbe, 0x34, 0x15, 0x85, 0xbd, 0x8b, 0x55, 0x92, 0xc0,
  0x32, 0xb9, 0x49, 0x3f, 0x66, 0xb2, 0x31, 0x3e, 0xaf, 0xb1, 0x9b, 0x3e,
  0x06, 0x52, 0x3d, 0xc0, 0xca, 0xd9, 0xc2, 0x3e, 0x30, 0x3f, 0x8a, 0x3c,
  0x67, 0x30, 0x65, 0xc0, 0xc6, 0xc5, 0x0d, 0xbe, 0x9c, 0x07, 0x4f, 0xbd,
  0x68, 0x20, 0x9a, 0xc0, 0x9c, 0x50, 0x58, 0x3f, 0xa4, 0x58, 0x07, 0x3e,
  0xcd, 0x5a, 0x82, 0x3e, 0x68, 0xfd, 0x4d, 0xc0, 0x0f, 0xe7, 0xcf, 0x3e,
  0xe8, 0x14, 0x7b, 0x3d, 0xe1, 0x54, 0x7b, 0xc0, 0x72, 0x08, 0x0c, 0xbe,
  0xe4, 0xd9, 0x7a, 0xbd, 0x2d, 0x95, 0xa2, 0xc0, 0xad, 0xf3, 0x65, 0x3f,
  0x1a, 0x4f, 0xc2, 0xbd, 0xb8, 0x70, 0x2a, 0x3e, 0x96, 0x4d, 0x61, 0xc0,
  0x27, 0x85, 0xdf, 0x3e, 0xfe, 0x4c, 0x8c, 0xbd, 0xd2, 0xdd, 0x86, 0xc0,
  0x22, 0x52, 0x02, 0xbe, 0x81, 0xfb, 0x03, 0xbe, 0xef, 0x71, 0xa9, 0xc0,
  0xc2, 0xfa, 0x76, 0x3f, 0x30, 0x6a, 0x5d, 0x3e, 0x5f, 0xa9, 0xd4, 0x3d,
  0x0b, 0xce, 0x78, 0xc0, 0x8c, 0xfe, 0xe9, 0x3e, 0x76, 0x8a, 0x66, 0x3e,
  0x81, 0x01, 0x90, 0xc0, 0x23, 0xf0, 0x0f, 0xbe, 0x4b, 0x17, 0x56, 0xbe,
  0x6f, 0xdd, 0xb1, 0xc0, 0x55, 0x93, 0x82, 0x3f, 0xca, 0xf2, 0xc8, 0xbd,
  0x69, 0x37, 0xaf, 0xbc, 0xbf, 0xe8, 0x89, 0xc0, 0x56, 0xcb, 0xfb, 0x3e,
  0xe1, 0x20, 0x3b, 0xbe, 0x2c, 0xed, 0x96, 0xc0, 0x85, 0x09, 0xe4, 0xbd,
  0x00, 0x14, 0xab, 0xbd, 0x45, 0x52, 0xb8, 0xc0, 0x7d, 0xfe, 0x8a, 0x3f,
  0x52, 0xda, 0xdc, 0xbd, 0xdc, 0x38, 0x11, 0xbe, 0x4b, 0x01, 0x99, 0xc0,
  0x40, 0xa4, 0x05, 0x3f, 0xec, 0xd6, 0xbb, 0x3d, 0x34, 0x48, 0x9e, 0xc0,
  0xab, 0x02, 0xc9, 0xbd, 0xe7, 0xe1, 0x6d, 0xbe, 0xdc, 0x16, 0xc0, 0xc0,
  0x29, 0xe6, 0x8b, 0x3f, 0x58, 0x88, 0xe8, 0x3d, 0xc1, 0xe9, 0x20, 0xbf,
  0x99, 0x6b, 0x9d, 0xc0, 0xd4, 0x8f, 0x0e, 0x3f, 0xc8, 0x96, 0xec, 0xbc,
  0x6c, 0x53, 0x9e, 0xc0, 0xd4, 0x7d, 0xec, 0xbc, 0xf9, 0x55, 0xbe, 0xbd,
  0xe1, 0x0d, 0xb8, 0xc0, 0x15, 0x71, 0x8a, 0x3f, 0x60, 0x05, 0x43, 0x3e,
  0x77, 0xb6, 0x99, 0xbf, 0x52, 0x1a, 0x9e, 0xc0, 0x0e, 0x3f, 0x1a, 0x3f,
  0x2a, 0xf3, 0xda, 0xbd, 0xcc, 0x20, 0x9d, 0xc0, 0x96, 0xd1, 0x8d, 0x3d,
  0x81, 0xd8, 0x81, 0xbb, 0x6c, 0xf2, 0xab, 0xc0, 0xb9, 0xe1, 0x84, 0x3f,
  0x56, 0x31, 0x4a, 0x3e, 0x2a, 0x77, 0xf9, 0xbf, 0x37, 0xdd, 0x96, 0xc0,
  0xd0, 0xdf, 0x21, 0x3f, 0x5c, 0xd1, 0xdb, 0x3d, 0x7b, 0x34, 0x99, 0xc0,
  0x1b, 0xf6, 0x4f, 0x3e, 0xc3, 0x9f, 0x05, 0xbe, 0xb7, 0x08, 0x97, 0xc0,
  0xba, 0x23, 0x82, 0x3f, 0x88, 0xda, 0x4e, 0x3d, 0x2e, 0xf1, 0x20, 0xc0,
  0x74, 0xab, 0x94, 0xc0, 0xb4, 0x77, 0x2c, 0x3f, 0x20, 0x95, 0x0a, 0xbc,
  0xb4, 0x9c, 0x99, 0xc0, 0xb5, 0x4a, 0x9e, 0x3e, 0xf3, 0x0a, 0xd7, 0xbd,
  0x86, 0x2b, 0x8a, 0xc0, 0x7c, 0xaa, 0x77, 0x3f, 0xef, 0xed, 0x6d, 0xbe,
  0xd9, 0x06, 0x4e, 0xc0, 0xba, 0xb9, 0x8c, 0xc0, 0x01, 0x47, 0x3a, 0x3f,
  0xcc, 0xba, 0x50, 0x3e, 0x9f, 0x65, 0x97, 0xc0, 0x03, 0x18, 0xde, 0x3e,
  0x82, 0x61, 0x0f, 0xbd, 0x77, 0x72, 0x6c, 0xc0, 0x60, 0xf2, 0x71, 0x3f,
  0xac, 0x2d, 0x4f, 0xbd, 0xf2, 0x33, 0x73, 0xc0, 0x4f, 0xd6, 0x88, 0xc0,
  0x51, 0x19, 0x44, 0x3f, 0xc3, 0x55, 0x42, 0xbe, 0x2c, 0x8d, 0x97, 0xc0,
  0xbf, 0xfe, 0x05, 0x3f, 0xc8, 0x37, 0x78, 0x3c, 0x03, 0x09, 0x51, 0xc0,
  0x5b, 0xd8, 0x68, 0x3f, 0x90, 0x04, 0x65, 0x3d, 0xf1, 0x39, 0x8e, 0xc0,
  0x27, 0x26, 0x82, 0xc0, 0x63, 0x7a, 0x50, 0x3f, 0x48, 0xe3, 0x87, 0x3d,
  0x53, 0xa4, 0x96, 0xc0, 0x73, 0x42, 0x21, 0x3f, 0x73, 0x31, 0x43, 0xbd,
  0xbf, 0xdb, 0x2e, 0xc0, 0x60, 0x8c, 0x64, 0x3f, 0xb2, 0xf0, 0x64, 0xbe,
  0x3a, 0x67, 0x9f, 0xc0, 0xc8, 0x58, 0x80, 0xc0, 0x6b, 0x52, 0x58, 0x3f,
  0x44, 0x2b, 0x02, 0x3e, 0x6c, 0x07, 0x98, 0xc0, 0x91, 0x51, 0x3a, 0x3f,
  0xc3, 0x9f, 0x6f, 0xbe, 0x16, 0x53, 0x17, 0xc0, 0x52, 0x2d, 0x5f, 0x3f,
  0x90, 0xa0, 0xe5, 0xbc, 0xdf, 0xe8, 0xb1, 0xc0, 0x84, 0xd0, 0x79, 0xc0,
  0xeb, 0x46, 0x61, 0x3f, 0x9b, 0xdc, 0x48, 0xbe, 0xbf, 0xee, 0x98, 0xc0,
  0x4e, 0x29, 0x4f, 0x3f, 0x68, 0x24, 0x0e, 0xbe, 0xe1, 0x9d, 0xf9, 0xbf,
  0x72, 0xfd, 0x61, 0x3f, 0x64, 0x4e, 0x0d, 0xbd, 0x6a, 0x98, 0xbf, 0xc0,
  0x31, 0x98, 0x80, 0xc0, 0x09, 0xa4, 0x6a, 0x3f, 0x20, 0x2d, 0xe3, 0xbb,
  0x39, 0xb6, 0x9d, 0xc0, 0x3e, 0x52, 0x5d, 0x3f, 0xb3, 0xc4, 0x6d, 0xbd,
  0xc1, 0xf1, 0xe0, 0xbf, 0x81, 0x29, 0x63, 0x3f, 0x86, 0x86, 0x07, 0xbe,
  0x16, 0xb3, 0xce, 0xc0, 0x02, 0x39, 0x83, 0xc0, 0x77, 0xea, 0x71, 0x3f,
  0xac, 0x52, 0xb7, 0xbd, 0x14, 0x08, 0xa1, 0xc0, 0x95, 0xd7, 0x6a, 0x3f,
  0x90, 0x37, 0x38, 0x3e, 0xd3, 0x9d, 0xc4, 0xbf, 0xef, 0xe7, 0x67, 0x3f,
  0x00, 0xaf, 0x57, 0xbe, 0x1e, 0xca, 0xdb, 0xc0, 0x76, 0xf0, 0x88, 0xc0,
  0xb4, 0x31, 0x7a, 0x3f, 0x38, 0xcf, 0x4d, 0x3d, 0xda, 0xb5, 0xa6, 0xc0,
  0xc1, 0xdb, 0x7a, 0x3f, 0xcb, 0x63, 0x73, 0x3d, 0x53, 0x28, 0xb3, 0xbf,
  0xaf, 0x77, 0x6c, 0x3f, 0x42, 0x50, 0x63, 0x3e, 0xf5, 0x5d, 0xe9, 0xc0,
  0x95, 0x6f, 0x8e, 0xc0, 0x4d, 0xcb, 0x7f, 0x3f, 0x64, 0xa1, 0x75, 0xbd,
  0x9e, 0xcf, 0xab, 0xc0, 0x60, 0x37, 0x86, 0x3f, 0xf6, 0xb2, 0xfb, 0x3d,
  0x4b, 0x9a, 0xa2, 0xbf, 0x4e, 0xfd, 0x72, 0x3f, 0x10, 0x2e, 0x36, 0xbe,
  0x67, 0x1a, 0xf6, 0xc0, 0xcc, 0xe5, 0x95, 0xc0, 0x48, 0xb8, 0x82, 0x3f,
  0x5c, 0xd9, 0x59, 0xbe, 0x2a, 0x7b, 0xb2, 0xc0, 0xbc, 0xb7, 0x8a, 0x3f,
  0xf1, 0xce, 0x4b, 0xbe, 0xf3, 0xa3, 0x98, 0xbf, 0x2b, 0x24, 0x7a, 0x3f,
  0x35, 0x9b, 0x4f, 0xbe, 0xaa, 0x82, 0x01, 0xc1, 0x72, 0x5c, 0x9d, 0xc0,
  0xc5, 0x5d, 0x84, 0x3f, 0xd8, 0x18, 0xfb, 0x3d, 0xfd, 0xda, 0xb9, 0xc0,
  0xdf, 0xdd, 0x92, 0x3f, 0xdc, 0x94, 0x34, 0xbd, 0xf1, 0x89, 0x8e, 0xbf,
  0x13, 0x49, 0x80, 0x3f, 0x12, 0x03, 0xe8, 0xbd, 0x81, 0x11, 0x08, 0xc1,
  0x36, 0xf9, 0xa5, 0xc0, 0xbc, 0x3b, 0x87, 0x3f, 0xe8, 0x8b, 0x8e, 0x3d,
  0x21, 0x52, 0xc1, 0xc0, 0x2e, 0x04, 0x97, 0x3f, 0x84, 0xfb, 0x8c, 0x3d,
  0x03, 0xce, 0x85, 0xbf, 0x5f, 0xd3, 0x83, 0x3f, 0x30, 0x03, 0x02, 0x3c,
  0x74, 0xfe, 0x0e, 0xc1, 0x51, 0xb4, 0xad, 0xc0, 0xd0, 0xe3, 0x89, 0x3f,
  0xa0, 0x01, 0x87, 0xbb, 0x5c, 0xbc, 0xc8, 0xc0, 0x3f, 0x94, 0x9c, 0x3f,
  0x18, 0xea, 0x7a, 0xbd, 0xff, 0x6e, 0x73, 0xbf, 0x18, 0x07, 0x89, 0x3f,
  0xe0, 0xba, 0x19, 0xbd, 0x4c, 0x50, 0x15, 0xc1, 0xd1, 0xaa, 0xb8, 0xc0,
  0x59, 0xd5, 0x8c, 0x3f, 0xb8, 0x5e, 0x0a, 0x3d, 0xcf, 0x18, 0xd2, 0xc0,
  0xc2, 0x9e, 0xa0, 0x3f, 0xbd, 0x64, 0x86, 0xbe, 0xdb, 0xe5, 0x6f, 0xbf,
  0x60, 0xd2, 0x8d, 0x3f, 0x80, 0x7b, 0xbd, 0xba, 0xe2, 0xe1, 0x1b, 0xc1,
  0x07, 0x70, 0xc3, 0xc0, 0x2c, 0xd9, 0x8e, 0x3f, 0xba, 0xe4, 0x5c, 0x3e,
  0xef, 0x97, 0xdb, 0xc0, 0x1e, 0xc5, 0xa5, 0x3f, 0x74, 0xb0, 0xc8, 0x3d,
  0x1e, 0x27, 0x6e, 0xbf, 0xf2, 0xe8, 0x90, 0x3f, 0x89, 0x99, 0x66, 0xbe,
  0x9b, 0xce, 0x23, 0xc1, 0x1f, 0x9f, 0xcb, 0xc0, 0x6c, 0x96, 0x90, 0x3f,
  0x0e, 0x01, 0x67, 0x3e, 0xb0, 0x87, 0xe4, 0xc0, 0x32, 0xd9, 0xad, 0x3f,
  0x3a, 0x56, 0x15, 0xbd, 0x39, 0x7b, 0x50, 0xbf, 0x3e, 0x32, 0x95, 0x3f,
  0x60, 0x5e, 0xaf, 0x3b, 0xac, 0x1b, 0x2b, 0xc1, 0x05, 0x92, 0xd6, 0xc0,
  0x76, 0xe8, 0x94, 0x3f, 0x7c, 0xdd, 0xcd, 0x3d, 0xc5, 0xb4, 0xee, 0xc0,
  0x06, 0xa3, 0xb1, 0x3f, 0x36, 0x44, 0x2b, 0xbe, 0xa8, 0x87, 0x44, 0xbf,
  0x0b, 0x82, 0x9a, 0x3f, 0x86, 0xbb, 0x36, 0x3e, 0xeb, 0x87, 0x32, 0xc1,
  0xae, 0x21, 0xe3, 0xc0, 0x42, 0x42, 0x96, 0x3f, 0xf2, 0x52, 0x18, 0xbe,
  0xee, 0x71, 0xfa, 0xc0, 0xb6, 0x27, 0xb7, 0x3f, 0xf4, 0x10, 0xb9, 0xbd,
  0x27, 0xe0, 0x43, 0xbf, 0xde, 0xe2, 0x9d, 0x3f, 0xb4, 0xc1, 0xe2, 0x3d,
  0x6d, 0x50, 0x3b, 0xc1, 0x37, 0x85, 0xec, 0xc0, 0x6d, 0x66, 0x99, 0x3f,
  0xb8, 0x7a, 0x6a, 0x3e, 0xf1, 0x8a, 0x02, 0xc1, 0xcb, 0x4d, 0xbe, 0x3f,
  0xe7, 0x00, 0x87, 0xbd, 0xe9, 0xae, 0x1f, 0xbf, 0xdb, 0xba, 0xa3, 0x3f,
  0x16, 0x4c, 0x3b, 0x3e, 0x1a, 0x73, 0x43, 0xc1, 0xa8, 0x4a, 0xfa, 0xc0,
  0x07, 0x95, 0x9d, 0x3f, 0x12, 0xf4, 0x31, 0xbe, 0x28, 0x0f, 0x09, 0xc1,
  0xb5, 0xfb, 0xc2, 0x3f, 0x23, 0x21, 0x7d, 0xbe, 0xbb, 0x0c, 0x1d, 0xbf,
  0x68, 0xeb, 0xa7, 0x3f, 0x80, 0xb3, 0xfa, 0xba, 0xd8, 0x6c, 0x4c, 0xc1,
  0xa8, 0x39, 0x03, 0xc1, 0x2d, 0xea, 0xa0, 0x3f, 0x98, 0x9f, 0x33, 0xbd,
  0xec, 0xda, 0x0f, 0xc1, 0xa0, 0x33, 0xc7, 0x3f, 0x17, 0x17, 0x3b, 0x3e,
  0xb3, 0x6e, 0x07, 0xbf, 0x83, 0xeb, 0xaf, 0x3f, 0x7e, 0xa4, 0x2c, 0x3e,
  0x2b, 0x95, 0x54, 0xc1, 0xf8, 0x36, 0x0c, 0xc1, 0x2e, 0xe1, 0xa4, 0x3f,
  0xab, 0xc6, 0x6c, 0xbe, 0x4a, 0xa3, 0x17, 0xc1, 0xed, 0x73, 0xcb, 0x3f,
  0x61, 0x1d, 0x71, 0xbe, 0x4e, 0x7a, 0x1b, 0xbf, 0xd9, 0x27, 0xb5, 0x3f,
  0x28, 0xb2, 0x25, 0xbe, 0xc4, 0x32, 0x5e, 0xc1, 0x6a, 0xe4, 0x13, 0xc1,
  0xdb, 0xc0, 0xa9, 0x3f, 0x94, 0xbf, 0x39, 0x3e, 0x78, 0x92, 0x1f, 0xc1,
  0x6d, 0x7a, 0xce, 0x3f, 0xb0, 0x17, 0x30, 0xbe, 0xfd, 0xe7, 0x0e, 0xbf,
  0x67, 0x15, 0xbb, 0x3f, 0x4e, 0x96, 0x27, 0xbe, 0xba, 0xf3, 0x68, 0xc1,
  0xa5, 0xbf, 0x1b, 0xc1, 0x83, 0xd4, 0xad, 0x3f, 0x98, 0x71, 0x53, 0x3e,
  0xd2, 0xf3, 0x27, 0xc1, 0xa7, 0xa0, 0xd6, 0x3f, 0xd3, 0x30, 0xf9, 0xbd,
  0x49, 0xfc, 0xfb, 0xbe, 0x65, 0x4d, 0xc1, 0x3f, 0x66, 0x08, 0x1c, 0x3e,
  0xd3, 0x7a, 0x73, 0xc1, 0x1d, 0xd5, 0x24, 0xc1, 0x42, 0xb1, 0xb3, 0x3f,
  0x50, 0x8d, 0x36, 0x3c, 0x20, 0x88, 0x31, 0xc1, 0xf6, 0xce, 0xda, 0x3f,
  0xff, 0x10, 0x03, 0xbe, 0xa3, 0x6b, 0xe6, 0xbe, 0x6b, 0x16, 0xc8, 0x3f,
  0xde, 0x7d, 0x57, 0x3e, 0xb7, 0x26, 0x7f, 0xc1, 0xa3, 0xf9, 0x2e, 0xc1,
  0x77, 0x18, 0xb8, 0x3f, 0x9c, 0x21, 0x9b, 0x3d, 0x45, 0x26, 0x3c, 0xc1,
  0x3a, 0x4a, 0xde, 0x3f, 0xe4, 0x14, 0x59, 0xbe, 0xa1, 0x38, 0xdd, 0xbe,
  0x05, 0xf7, 0xcf, 0x3f, 0x16, 0x94, 0x1b, 0x3e, 0x4c, 0x8a, 0x85, 0xc1,
  0x63, 0x42, 0x3a, 0xc1, 0x8f, 0x78, 0xbf, 0x3f, 0x79, 0x4a, 0xfe, 0xbd,
  0xbf, 0x8e, 0x47, 0xc1, 0xdf, 0x1d, 0xe3, 0x3f, 0x60, 0x83, 0x8d, 0xbc,
  0xdc, 0xbd, 0xdf, 0xbe, 0xfc, 0x4c, 0xd5, 0x3f, 0xb2, 0x24, 0x28, 0xbe,
  0x95, 0xf0, 0x8c, 0xc1, 0xa3, 0x70, 0x44, 0xc1, 0x5f, 0x87, 0xc5, 0x3f,
  0xf8, 0xc5, 0x63, 0x3e, 0xdb, 0xa6, 0x53, 0xc1, 0xe3, 0x0a, 0xea, 0x3f,
  0xfb, 0xd4, 0x94, 0xbd, 0x5a, 0x7c, 0x91, 0xbe, 0x74, 0x4f, 0xdd, 0x3f,
  0xe0, 0xea, 0xf4, 0xbc, 0x78, 0x46, 0x94, 0xc1, 0x5a, 0x1b, 0x51, 0xc1,
  0x3a, 0x4e, 0xcd, 0x3f, 0x60, 0x13, 0xfd, 0x3c, 0xc7, 0x7b, 0x61, 0xc1,
  0xb4, 0xe8, 0xed, 0x3f, 0x4f, 0x06, 0xaa, 0xbd, 0xb0, 0xea, 0x6c, 0xbe,
  0x92, 0x28, 0xe6, 0x3f, 0xe8, 0x9b, 0x61, 0x3d, 0x7e, 0x35, 0x9c, 0xc1,
  0x44, 0x9a, 0x60, 0xc1, 0xf8, 0xfa, 0xd6, 0x3f, 0x18, 0x3e, 0x62, 0x3d,
  0xb1, 0xf7, 0x71, 0xc1, 0x9e, 0x15, 0xf4, 0x3f, 0x4e, 0x8f, 0xb9, 0x3d,
  0xa0, 0x23, 0x72, 0xbe, 0xbc, 0x9c, 0xee, 0x3f, 0xe0, 0xbb, 0xc2, 0x3c,
  0xad, 0x5a, 0xa5, 0xc1, 0xfc, 0xea, 0x6f, 0xc1, 0xc1, 0x59, 0xdf, 0x3f,
  0x00, 0xd7, 0xfb, 0x3a, 0xf5, 0xc3, 0x81, 0xc1, 0x4c, 0x9a, 0xf8, 0x3f,
  0xcd, 0x60, 0x80, 0xbe, 0x07, 0x5f, 0x0a, 0xbe, 0xe8, 0xf7, 0xf8, 0x3f,
  0xb0, 0x8b, 0xed, 0x3c, 0xa7, 0x75, 0xaf, 0xc1, 0x32, 0x8b, 0x81, 0xc1,
  0x0b, 0xe1, 0xea, 0x3f, 0xb0, 0x22, 0xe5, 0x3c, 0x52, 0x4c, 0x8c, 0xc1,
  0x33, 0x70, 0xf9, 0x3f, 0x89, 0x96, 0xad, 0xbd, 0x91, 0xfe, 0xc0, 0xbd,
  0xf9, 0x60, 0x01, 0x40, 0xaa, 0x97, 0x42, 0xbe, 0x37, 0xe8, 0xba, 0xc1,
  0x7c, 0x07, 0x8c, 0xc1, 0xaa, 0x6d, 0xf6, 0x3f, 0x6c, 0x68, 0x78, 0xbd,
  0x4d, 0x2b, 0x98, 0xc1, 0x47, 0x65, 0xff, 0x3f, 0x14, 0xd6, 0x3b, 0xbe,
  0x75, 0xaf, 0x58, 0xba, 0xbf, 0x0b, 0x08, 0x40, 0x88, 0x1a, 0xa2, 0x3d,
  0xe0, 0xd1, 0xc7, 0xc1, 0x25, 0x52, 0x99, 0xc1, 0xab, 0x5f, 0x02, 0x40,
  0x8c, 0xf2, 0x65, 0xbe, 0xcc, 0xc6, 0xa6, 0xc1, 0xce, 0x60, 0x00, 0x40,
  0x76, 0x49, 0x49, 0x3e, 0x82, 0x57, 0xec, 0xba, 0xc6, 0x0d, 0x0e, 0x40,
  0x10, 0x84, 0x66, 0xbe, 0xb9, 0x0b, 0xd7, 0xc1, 0xc2, 0x09, 0xa8, 0xc1,
  0x29, 0x8b, 0x0a, 0x40, 0xf2, 0x5d, 0x4b, 0x3e, 0x37, 0xd5, 0xb7, 0xc1,
  0x7a, 0x96, 0x01, 0x40, 0x36, 0x03, 0x6c, 0xbe, 0x70, 0x16, 0xed, 0x3d,
  0x17, 0xf5, 0x15, 0x40, 0xc8, 0xfc, 0x3f, 0x3e, 0xaa, 0x03, 0xe9, 0xc1,
  0x84, 0xcf, 0xba, 0xc1, 0x06, 0x61, 0x13, 0x40, 0xc8, 0x2a, 0x21, 0x3d,
  0xbd, 0xf3, 0xcc, 0xc1, 0x40, 0xb0, 0x01, 0x40, 0x79, 0xc0, 0xfa, 0xbc,
  0xda, 0x5c, 0x2e, 0x3e, 0x4c, 0xd8, 0x1e, 0x40, 0x74, 0xe2, 0x26, 0x3e,
  0x21, 0x0c, 0xfe, 0xc1, 0x1d, 0x97, 0xd2, 0xc1, 0x62, 0xf2, 0x1d, 0x40,
  0x4a, 0x52, 0x60, 0xbe, 0x48, 0x43, 0xe7, 0xc1, 0x53, 0xdd, 0x00, 0x40,
  0xc4, 0x08, 0xd5, 0xbd, 0x71, 0xfa, 0x4f, 0x3e, 0xea, 0x8f, 0x28, 0x40,
  0x80, 0xe9, 0x0f, 0xbc, 0xc9, 0xdd, 0x0b, 0xc2, 0xce, 0x9f, 0xef, 0xc1,
  0x8a, 0xb6, 0x28, 0x40, 0x70, 0x41, 0x45, 0x3e, 0x5c, 0x41, 0x04, 0xc2,
  0x69, 0x84, 0xfb, 0x3f, 0xd5, 0xd3, 0x16, 0xbe, 0xd9, 0xe1, 0x92, 0x3e,
  0x0d, 0x63, 0x33, 0x40, 0xf3, 0x25, 0x54, 0xbe, 0x1a, 0x56, 0x1b, 0xc2,
  0x21, 0xb4, 0x0a, 0xc2, 0xd4, 0xe4, 0x33, 0x40, 0x12, 0x9f, 0xb6, 0xbd,
  0xe2, 0x42, 0x19, 0xc2, 0xff, 0xdb, 0xf2, 0x3f, 0xdb, 0x9f, 0x47, 0x3d,
  0x8e, 0x2f, 0xcf, 0x3e, 0x66, 0x86, 0x3e, 0x40, 0x8d, 0x84, 0x5b, 0xbe,
  0x9f, 0xd7, 0x2d, 0xc2, 0x46, 0x69, 0x22, 0xc2, 0x32, 0xa1, 0x3d, 0x40,
  0xb0, 0x97, 0xd6, 0xbc, 0xac, 0xdf, 0x33, 0xc2, 0x4a, 0x39, 0xe5, 0x3f,
  0x22, 0x74, 0x04, 0xbe, 0x7b, 0x56, 0x1f, 0x3f, 0x59, 0x6f, 0x49, 0x40,
  0xf8, 0x8f, 0x34, 0x3d, 0x21, 0xa4, 0x43, 0xc2, 0xa4, 0xd4, 0x42, 0xc2,
  0xe5, 0xb5, 0x44, 0x40, 0x88, 0x99, 0x4b, 0x3d, 0x15, 0xc5, 0x56, 0xc2,
  0x6f, 0x94, 0xce, 0x3f, 0xd8, 0x94, 0x5d, 0xbd, 0xbd, 0xe7, 0x65, 0x3f,
  0x80, 0x6f, 0x55, 0x40, 0xd1, 0x2b, 0x06, 0xbe, 0x04, 0x9b, 0x5b, 0xc2,
  0x85, 0x8f, 0x71, 0xc2, 0x5a, 0x39, 0x49, 0x40, 0x37, 0xd4, 0x68, 0xbe,
  0xa7, 0x3f, 0x83, 0xc2, 0x60, 0x2b, 0xa7, 0x3f, 0xc9, 0xa1, 0x8f, 0xbe,
  0x91, 0x78, 0x81, 0x3f, 0x31, 0x98, 0x48, 0x40, 0xf4, 0xb6, 0x9d, 0x3d,
  0xc2, 0x77, 0x7d, 0xc2, 0x30, 0x3a, 0xba, 0xc2, 0x92, 0x36, 0x3f, 0x40,
  0x9e, 0xb2, 0x3c, 0x3e, 0x83, 0x7d, 0xbd, 0xc2, 0xbb, 0x9b, 0x99, 0x3f,
  0x35, 0x07, 0x00, 0xbe, 0x07, 0xfa, 0x74, 0x40, 0x5a, 0x81, 0xa4, 0xbe,
  0x60, 0x21, 0x5e, 0xbc, 0x31, 0x0d, 0x1a, 0xbf, 0xe4, 0x2f, 0xbf, 0xbf,
  0xe6, 0x1b, 0xc1, 0xbe, 0x00, 0xe4, 0x4a, 0x39, 0xf5, 0x77, 0xf1, 0xbe,
  0x79, 0xd8, 0x2b, 0xbf, 0x8f, 0xde, 0x48, 0xbe, 0x1e, 0xe5, 0x6e, 0xbe,
  0xf5, 0x11, 0x07, 0xbf, 0x2a, 0xa3, 0xa8, 0xbd, 0x0a, 0xf1, 0x09, 0xbf,
  0x52, 0x85, 0xc3, 0xbf, 0x35, 0x51, 0x26, 0xbf, 0x40, 0x56, 0xd5, 0xbd,
  0x6b, 0xb2, 0xf4, 0xbe, 0xf2, 0x3a, 0x2d, 0xbf, 0x8f, 0xaf, 0x8c, 0x3d,
  0x2e, 0x69, 0xc9, 0xbd, 0x1a, 0x89, 0x21, 0xbf, 0xc4, 0x4c, 0x4f, 0x3e,
  0x0a, 0xfb, 0x4a, 0xbf, 0x1c, 0x51, 0x8c, 0xbf, 0x9d, 0xba, 0xd4, 0xbe,
  0x80, 0xd5, 0xf2, 0xba, 0x26, 0xa0, 0x38, 0xbf, 0xdf, 0x59, 0x94, 0xbe,
  0x98, 0x1b, 0x2e, 0x3e, 0x51, 0xf8, 0x09, 0xbf, 0xdb, 0x73, 0xdf, 0xbe,
  0xa4, 0x6a, 0x2f, 0xbe, 0xde, 0x4d, 0x0a, 0xbf, 0x0d, 0x54, 0x8e, 0xbf,
  0x86, 0xbd, 0x8c, 0xbe, 0x98, 0xef, 0x8b, 0xbc, 0x8d, 0x49, 0x49, 0xbf,
  0x03, 0x25, 0x3e, 0xbf, 0xcc, 0x66, 0x01, 0x3e, 0x99, 0x96, 0xfb, 0xbe,
  0x1a, 0xfd, 0xff, 0xff, 0x2c, 0x00, 0x00, 0x00, 0x05, 0x00, 0x00, 0x00,
  0x08, 0x00, 0x00, 0x00, 0x2c, 0x00, 0x00, 0x00, 0x14, 0x00, 0x00, 0x00,
  0x6d, 0x6f, 0x64, 0x65, 0x6c, 0x2f, 0x64, 0x65, 0x6e, 0x73, 0x65, 0x5f,
  0x31, 0x2f, 0x4d, 0x61, 0x74, 0x4d, 0x75, 0x6c, 0x00, 0x00, 0x00, 0x00,
  0x02, 0x00, 0x00, 0x00, 0x64, 0x00, 0x00, 0x00, 0x0a, 0x00, 0x00, 0x00,
  0xac, 0xfc, 0xff, 0xff, 0xfe, 0xfe, 0xff, 0xff, 0x04, 0x00, 0x00, 0x00,
  0x50, 0x00, 0x00, 0x00, 0xc6, 0x28, 0x07, 0x41, 0x75, 0x05, 0x44, 0x3d,
  0xce, 0x38, 0xfa, 0xbe, 0x5c, 0x56, 0x0e, 0xbe, 0xf5, 0xb6, 0xad, 0x40,
  0xcf, 0x89, 0x1b, 0x3e, 0x4e, 0x50, 0x28, 0xc0, 0x04, 0x3a, 0xa8, 0xbd,
  0x8f, 0xc6, 0xea, 0xbc, 0xf7, 0xed, 0x80, 0xbc, 0x40, 0x7a, 0xab, 0xbc,
  0xb3, 0xc8, 0x9d, 0xbe, 0xe3, 0xb8, 0x2e, 0xc0, 0xb6, 0x2a, 0x5c, 0xbd,
  0x4d, 0xdd, 0x18, 0x3c, 0x46, 0x8e, 0xc4, 0xbd, 0x84, 0xb2, 0x26, 0xbf,
  0x15, 0xaf, 0xfa, 0x39, 0xc3, 0x0e, 0x90, 0x40, 0x97, 0x88, 0xe9, 0x3d,
  0xb6, 0xfd, 0xff, 0xff, 0x28, 0x00, 0x00, 0x00, 0x04, 0x00, 0x00, 0x00,
  0x08, 0x00, 0x00, 0x00, 0x28, 0x00, 0x00, 0x00, 0x12, 0x00, 0x00, 0x00,
  0x6d, 0x6f, 0x64, 0x65, 0x6c, 0x2f, 0x64, 0x65, 0x6e, 0x73, 0x65, 0x2f,
  0x4d, 0x61, 0x74, 0x4d, 0x75, 0x6c, 0x00, 0x00, 0x02, 0x00, 0x00, 0x00,
  0x0a, 0x00, 0x00, 0x00, 0x02, 0x00, 0x00, 0x00, 0x44, 0xfd, 0xff, 0xff,
  0x96, 0xff, 0xff, 0xff, 0x04, 0x00, 0x00, 0x00, 0x28, 0x00, 0x00, 0x00,
  0xdf, 0xe7, 0xc2, 0x41, 0x00, 0x00, 0x00, 0x00, 0xcd, 0x5f, 0x01, 0xc3,
  0x9c, 0x87, 0x7a, 0x42, 0xa7, 0x80, 0x49, 0x41, 0x00, 0x00, 0x00, 0x00,
  0x70, 0xfd, 0x7d, 0x42, 0x4e, 0xda, 0x4e, 0x41, 0x48, 0x06, 0x49, 0xbd,
  0xce, 0xf0, 0x9d, 0xc2, 0x26, 0xfe, 0xff, 0xff, 0x20, 0x00, 0x00, 0x00,
  0x03, 0x00, 0x00, 0x00, 0x08, 0x00, 0x00, 0x00, 0x20, 0x00, 0x00, 0x00,
  0x0a, 0x00, 0x00, 0x00, 0x64, 0x65, 0x6e, 0x73, 0x65, 0x2f, 0x62, 0x69,
  0x61, 0x73, 0x00, 0x00, 0x01, 0x00, 0x00, 0x00, 0x0a, 0x00, 0x00, 0x00,
  0x04, 0x00, 0x06, 0x00, 0x04, 0x00, 0x00, 0x00, 0x00, 0x00, 0x06, 0x00,
  0x08, 0x00, 0x04, 0x00, 0x06, 0x00, 0x00, 0x00, 0x04, 0x00, 0x00, 0x00,
  0x90, 0x01, 0x00, 0x00, 0xde, 0xc5, 0x3b, 0xc0, 0xb0, 0x3c, 0xae, 0xc0,
  0x78, 0xe0, 0x8e, 0xc0, 0xd8, 0x5f, 0x5c, 0xc0, 0x97, 0x70, 0x1e, 0xc0,
  0x40, 0xdd, 0xe6, 0xbf, 0x8c, 0x69, 0x0c, 0xc0, 0x71, 0x0a, 0x01, 0xc0,
  0xb2, 0x55, 0xf3, 0xbf, 0x52, 0x34, 0xf8, 0xbf, 0x10, 0x05, 0xa3, 0xbf,
  0x8b, 0xd6, 0x88, 0xbf, 0x11, 0x41, 0x9f, 0xbf, 0xb5, 0x30, 0xb5, 0xbf,
  0x8a, 0xb3, 0x31, 0xbf, 0xe1, 0xe0, 0x83, 0xbf, 0x57, 0x94, 0xad, 0xbf,
  0xb4, 0x9c, 0xb3, 0xbf, 0xc7, 0x67, 0x1d, 0xbf, 0xe1, 0x06, 0x99, 0xbf,
  0x1b, 0x81, 0x9c, 0xbf, 0xf5, 0xbe, 0x76, 0xbf, 0x2e, 0xa0, 0x50, 0xbf,
  0x49, 0xc4, 0x97, 0xbf, 0x5f, 0x1a, 0x85, 0xbf, 0x90, 0x41, 0x98, 0xbf,
  0x98, 0x67, 0x49, 0xbf, 0xa3, 0x13, 0x45, 0xbf, 0x44, 0x71, 0x71, 0xbf,
  0xe3, 0x35, 0x7f, 0xbf, 0x26, 0x2f, 0xdc, 0xbe, 0x6f, 0x4c, 0x14, 0xbf,
  0x85, 0x10, 0x47, 0xbf, 0xc7, 0x9c, 0x00, 0xbf, 0xed, 0x84, 0xc1, 0x3d,
  0xe9, 0xd6, 0x43, 0xbf, 0xea, 0xe6, 0x8c, 0xbe, 0xf7, 0x16, 0x18, 0xbe,
  0x11, 0x40, 0xe0, 0xbe, 0x25, 0xfc, 0x2d, 0xbf, 0xea, 0x57, 0xdc, 0xbe,
  0xbe, 0xd4, 0x2a, 0xbe, 0x6d, 0x71, 0xc3, 0x3d, 0xd5, 0x9e, 0x99, 0x3d,
  0x10, 0x4d, 0x35, 0x3e, 0xd2, 0xa1, 0x90, 0x3e, 0x02, 0x85, 0xcf, 0xbd,
  0xd2, 0xdc, 0xce, 0x3e, 0x94, 0x7e, 0xaf, 0x3e, 0x56, 0xf5, 0x04, 0x3e,
  0x17, 0xa3, 0x99, 0x3d, 0xde, 0x14, 0x97, 0xbe, 0x4a, 0x1e, 0x37, 0x3e,
  0x27, 0x93, 0x0f, 0x3f, 0x17, 0x3d, 0x21, 0x3f, 0xd1, 0xca, 0xb7, 0x3e,
  0x98, 0xea, 0x0f, 0x3f, 0x31, 0xc3, 0x1b, 0x3e, 0x38, 0x92, 0xe2, 0x3e,
  0x46, 0x9f, 0x2b, 0xbc, 0x41, 0xd7, 0xe3, 0x3e, 0x40, 0x84, 0x16, 0x3e,
  0x5c, 0xf8, 0x13, 0x3f, 0x59, 0x78, 0xc7, 0xbb, 0x86, 0xaf, 0x20, 0x3f,
  0x5d, 0xd4, 0xb7, 0x3e, 0x2b, 0x4c, 0xaa, 0x3e, 0xd1, 0xb7, 0x82, 0x3d,
  0x34, 0x60, 0xa1, 0x3e, 0x98, 0x97, 0x2e, 0x3f, 0xaf, 0x70, 0xf7, 0x3e,
  0x15, 0x7e, 0x43, 0x3f, 0x0b, 0x64, 0x23, 0x3f, 0x2c, 0x91, 0x32, 0x3f,
  0x44, 0xad, 0x09, 0x3f, 0x63, 0x0c, 0x35, 0x3f, 0x73, 0x31, 0xc6, 0x3e,
  0x22, 0x8b, 0x00, 0x3f, 0x60, 0xf5, 0x90, 0x3f, 0xe8, 0x2b, 0x4b, 0x3f,
  0x34, 0xf8, 0x69, 0x3f, 0xd9, 0x66, 0x8f, 0x3f, 0x7c, 0x4a, 0xad, 0x3f,
  0xc9, 0x35, 0x9f, 0x3f, 0x2a, 0xb3, 0xa4, 0x3f, 0xe3, 0xb7, 0xae, 0x3f,
  0xc3, 0x73, 0xc1, 0x3f, 0xba, 0x6a, 0x01, 0x40, 0xc7, 0x35, 0xb5, 0x3f,
  0x34, 0xac, 0xf7, 0x3f, 0x98, 0x60, 0x0b, 0x40, 0x24, 0x74, 0x18, 0x40,
  0x63, 0x65, 0x23, 0x40, 0xd1, 0xac, 0x46, 0x40, 0xa5, 0xc6, 0x65, 0x40,
  0x0f, 0xd4, 0x3d, 0x40, 0x89, 0xe4, 0x40, 0xbf, 0x37, 0x85, 0x33, 0xbf,
  0x21, 0x50, 0x7c, 0xbf, 0x7a, 0xf1, 0x5f, 0xbf, 0x00, 0x00, 0x0e, 0x00,
  0x14, 0x00, 0x04, 0x00, 0x00, 0x00, 0x08, 0x00, 0x0c, 0x00, 0x10, 0x00,
  0x0e, 0x00, 0x00, 0x00, 0x24, 0x00, 0x00, 0x00, 0x02, 0x00, 0x00, 0x00,
  0x08, 0x00, 0x00, 0x00, 0x20, 0x00, 0x00, 0x00, 0x0c, 0x00, 0x00, 0x00,
  0x64, 0x65, 0x6e, 0x73, 0x65, 0x5f, 0x31, 0x2f, 0x62, 0x69, 0x61, 0x73,
  0x00, 0x00, 0x00, 0x00, 0x01, 0x00, 0x00, 0x00, 0x64, 0x00, 0x00, 0x00,
  0x94, 0xff, 0xff, 0xff, 0x14, 0x00, 0x18, 0x00, 0x04, 0x00, 0x00, 0x00,
  0x08, 0x00, 0x0c, 0x00, 0x10, 0x00, 0x00, 0x00, 0x00, 0x00, 0x14, 0x00,
  0x14, 0x00, 0x00, 0x00, 0x40, 0x00, 0x00, 0x00, 0x01, 0x00, 0x00, 0x00,
  0x18, 0x00, 0x00, 0x00, 0x40, 0x00, 0x00, 0x00, 0x04, 0x00, 0x00, 0x00,
  0x02, 0x00, 0x00, 0x00, 0xff, 0xff, 0xff, 0xff, 0x02, 0x00, 0x00, 0x00,
  0x19, 0x00, 0x00, 0x00, 0x73, 0x65, 0x72, 0x76, 0x69, 0x6e, 0x67, 0x5f,
  0x64, 0x65, 0x66, 0x61, 0x75, 0x6c, 0x74, 0x5f, 0x69, 0x6e, 0x70, 0x75,
  0x74, 0x5f, 0x31, 0x3a, 0x30, 0x00, 0x00, 0x00, 0x02, 0x00, 0x00, 0x00,
  0x01, 0x00, 0x00, 0x00, 0x02, 0x00, 0x00, 0x00, 0xfc, 0xff, 0xff, 0xff,
  0x04, 0x00, 0x04, 0x00, 0x04, 0x00, 0x00, 0x00
};

const int comfort_model_summer_len = 5960;
const int comfort_model_winter_len = 5960;
